{
  "version": "1.0",
  "truncation": null,
  "padding": null,
  "added_tokens": [
    {
      "id": 0,
      "content": "<|pad|>",
      "single_word": false,
      "lstrip": false,
      "rstrip": false,
      "normalized": false,
      "special": true
    },
    {
      "id": 1,
      "content": "<|unk|>",
      "single_word": false,
      "lstrip": false,
      "rstrip": false,
      "normalized": false,
      "special": true
    },
    {
      "id": 2,
      "content": "<|bos|>",
      "single_word": false,
      "lstrip": false,
      "rstrip": false,
      "normalized": false,
      "special": true
    },
    {
      "id": 3,
      "content": "<|eos|>",
      "single_word": false,
      "lstrip": false,
      "rstrip": false,
      "normalized": false,
      "special": true
    }
  ],
  "normalizer": null,
  "pre_tokenizer": {
    "type": "ByteLevel",
    "add_prefix_space": false,
    "trim_offsets": true,
    "use_regex": true
  },
  "post_processor": {
    "type": "ByteLevel",
    "add_prefix_space": true,
    "trim_offsets": false,
    "use_regex": true
  },
  "decoder": {
    "type": "ByteLevel",
    "add_prefix_space": true,
    "trim_offsets": true,
    "use_regex": true
  },
  "model": {
    "type": "BPE",
    "dropout": null,
    "unk_token": null,
    "continuing_subword_prefix": null,
    "end_of_word_suffix": null,
    "fuse_unk": false,
    "byte_fallback": false,
    "ignore_merges": false,
    "vocab": {
      "<|pad|>": 0,
      "<|unk|>": 1,
      "<|bos|>": 2,
      "<|eos|>": 3,
      "!": 4,
      "\"": 5,
      "#": 6,
      "$": 7,
      "%": 8,
      "&": 9,
      "'": 10,
      "(": 11,
      ")": 12,
      "*": 13,
      "+": 14,
      ",": 15,
      "-": 16,
      ".": 17,
      "/": 18,
      "0": 19,
      "1": 20,
      "2": 21,
      "3": 22,
      "4": 23,
      "5": 24,
      "6": 25,
      "7": 26,
      "8": 27,
      "9": 28,
      ":": 29,
      ";": 30,
      "<": 31,
      "=": 32,
      ">": 33,
      "?": 34,
      "@": 35,
      "A": 36,
      "B": 37,
      "C": 38,
      "D": 39,
      "E": 40,
      "F": 41,
      "G": 42,
      "H": 43,
      "I": 44,
      "J": 45,
      "K": 46,
      "L": 47,
      "M": 48,
      "N": 49,
      "O": 50,
      "P": 51,
      "Q": 52,
      "R": 53,
      "S": 54,
      "T": 55,
      "U": 56,
      "V": 57,
      "W": 58,
      "X": 59,
      "Y": 60,
      "Z": 61,
      "[": 62,
      "\\": 63,
      "]": 64,
      "^": 65,
      "_": 66,
      "`": 67,
      "a": 68,
      "b": 69,
      "c": 70,
      "d": 71,
      "e": 72,
      "f": 73,
      "g": 74,
      "h": 75,
      "i": 76,
      "j": 77,
      "k": 78,
      "l": 79,
      "m": 80,
      "n": 81,
      "o": 82,
      "p": 83,
      "q": 84,
      "r": 85,
      "s": 86,
      "t": 87,
      "u": 88,
      "v": 89,
      "w": 90,
      "x": 91,
      "y": 92,
      "z": 93,
      "{": 94,
      "|": 95,
      "}": 96,
      "~": 97,
      "¡": 98,
      "¢": 99,
      "£": 100,
      "¤": 101,
      "¥": 102,
      "¦": 103,
      "§": 104,
      "¨": 105,
      "©": 106,
      "ª": 107,
      "«": 108,
      "¬": 109,
      "®": 110,
      "¯": 111,
      "°": 112,
      "±": 113,
      "²": 114,
      "³": 115,
      "´": 116,
      "µ": 117,
      "¶": 118,
      "·": 119,
      "¸": 120,
      "¹": 121,
      "º": 122,
      "»": 123,
      "¼": 124,
      "½": 125,
      "¾": 126,
      "¿": 127,
      "Â": 128,
      "Ã": 129,
      "Ä": 130,
      "Å": 131,
      "Æ": 132,
      "Ç": 133,
      "È": 134,
      "É": 135,
      "Ê": 136,
      "Ë": 137,
      "Ì": 138,
      "Í": 139,
      "Î": 140,
      "Ï": 141,
      "Ð": 142,
      "Ñ": 143,
      "Ò": 144,
      "Ó": 145,
      "Ô": 146,
      "Õ": 147,
      "Ö": 148,
      "×": 149,
      "Ø": 150,
      "Ù": 151,
      "Ú": 152,
      "Û": 153,
      "Ü": 154,
      "Ý": 155,
      "Þ": 156,
      "ß": 157,
      "à": 158,
      "á": 159,
      "â": 160,
      "ã": 161,
      "ä": 162,
      "å": 163,
      "æ": 164,
      "ç": 165,
      "è": 166,
      "é": 167,
      "ê": 168,
      "ë": 169,
      "ì": 170,
      "í": 171,
      "î": 172,
      "ï": 173,
      "ð": 174,
      "ñ": 175,
      "ò": 176,
      "ó": 177,
      "ô": 178,
      "Ā": 179,
      "ā": 180,
      "Ă": 181,
      "ă": 182,
      "Ą": 183,
      "ą": 184,
      "Ć": 185,
      "ć": 186,
      "Ĉ": 187,
      "ĉ": 188,
      "Ċ": 189,
      "ċ": 190,
      "Č": 191,
      "č": 192,
      "Ď": 193,
      "ď": 194,
      "Đ": 195,
      "đ": 196,
      "Ē": 197,
      "ē": 198,
      "Ĕ": 199,
      "ĕ": 200,
      "Ė": 201,
      "ė": 202,
      "Ę": 203,
      "ę": 204,
      "Ě": 205,
      "ě": 206,
      "Ĝ": 207,
      "ĝ": 208,
      "Ğ": 209,
      "ğ": 210,
      "Ġ": 211,
      "ġ": 212,
      "Ģ": 213,
      "ģ": 214,
      "Ĥ": 215,
      "ĥ": 216,
      "Ħ": 217,
      "ħ": 218,
      "Ĩ": 219,
      "ĩ": 220,
      "Ī": 221,
      "ī": 222,
      "Ĭ": 223,
      "ĭ": 224,
      "Į": 225,
      "į": 226,
      "İ": 227,
      "ı": 228,
      "Ĳ": 229,
      "ĳ": 230,
      "Ĵ": 231,
      "ĵ": 232,
      "Ķ": 233,
      "ķ": 234,
      "ĸ": 235,
      "Ĺ": 236,
      "ĺ": 237,
      "Ļ": 238,
      "ļ": 239,
      "Ľ": 240,
      "ľ": 241,
      "Ŀ": 242,
      "ŀ": 243,
      "Ł": 244,
      "ł": 245,
      "Ń": 246,
      "ĠĠ": 247,
      "ĠĠĠĠ": 248,
      "Ġt": 249,
      "in": 250,
      "Ġa": 251,
      "er": 252,
      "on": 253,
      "he": 254,
      "re": 255,
      "at": 256,
      "Ġs": 257,
      "or": 258,
      "Ġc": 259,
      "en": 260,
      "Ġthe": 261,
      "an": 262,
      "ĠĠĠ": 263,
      "it": 264,
      "st": 265,
      "le": 266,
      "Ġw": 267,
      "ĠĠĠĠĠĠĠĠ": 268,
      "ou": 269,
      "al": 270,
      "ar": 271,
      "Ġf": 272,
      "Ġb": 273,
      "is": 274,
      "ed": 275,
      "Ġp": 276,
      "ing": 277,
      "Ġo": 278,
      "as": 279,
      "es": 280,
      "ion": 281,
      "Ġm": 282,
      "nd": 283,
      "Ġd": 284,
      "ic": 285,
      "Ġin": 286,
      "Ġto": 287,
      "Ġh": 288,
      "om": 289,
      "Ġof": 290,
      "et": 291,
      "</": 292,
      "Ġth": 293,
      "ct": 294,
      "el": 295,
      "ent": 296,
      "Ġand": 297,
      "Ġn": 298,
      "ĊĠĠĠ": 299,
      "id": 300,
      "am": 301,
      "--": 302,
      "ro": 303,
      "ĊĠĠĠĠ": 304,
      "Ġre": 305,
      "=\"": 306,
      "Ġl": 307,
      "im": 308,
      "ĊĠĠĠĠĠĠĠĠ": 309,
      "ol": 310,
      "il": 311,
      "Ġ=": 312,
      "ot": 313,
      "ig": 314,
      "ut": 315,
      "ad": 316,
      "ac": 317,
      "Ġe": 318,
      "se": 319,
      "od": 320,
      "iv": 321,
      "ĠI": 322,
      "Ġ(": 323,
      "ĠT": 324,
      "Ġg": 325,
      "sp": 326,
      "ass": 327,
      "\">": 328,
      "ĊĠĠĠĠĠĠĠ": 329,
      "Ġis": 330,
      "ur": 331,
      "if": 332,
      "ow": 333,
      "Ġ<": 334,
      "Ġ{": 335,
      "ĊĠ": 336,
      "ay": 337,
      ");": 338,
      "Ġ1": 339,
      "00": 340,
      "ĠS": 341,
      "ht": 342,
      "Ġcl": 343,
      "ly": 344,
      "th": 345,
      "ation": 346,
      "Ġst": 347,
      "Ġu": 348,
      "Ġfor": 349,
      "ĠA": 350,
      "Ġbe": 351,
      "ul": 352,
      "em": 353,
      "Ġ\"": 354,
      "ver": 355,
      "//": 356,
      "Ġy": 357,
      "ce": 358,
      "ag": 359,
      "Ġon": 360,
      "ch": 361,
      "ĠC": 362,
      "Ġthat": 363,
      "um": 364,
      "Ġclass": 365,
      "ĉĉ": 366,
      "Ġ0": 367,
      "ab": 368,
      "ve": 369,
      "ap": 370,
      "Ġit": 371,
      "ate": 372,
      "ter": 373,
      "op": 374,
      "Ġcon": 375,
      "ith": 376,
      "ex": 377,
      "ir": 378,
      "ist": 379,
      "tr": 380,
      "----": 381,
      "âĢ": 382,
      "span": 383,
      "**": 384,
      "oc": 385,
      "Ġyou": 386,
      "ue": 387,
      "Ġv": 388,
      "Ġ2": 389,
      "pe": 390,
      "Ġwh": 391,
      "un": 392,
      "::": 393,
      "ĠM": 394,
      "ame": 395,
      "ss": 396,
      "Ġan": 397,
      "Ġr": 398,
      "ers": 399,
      "Ġal": 400,
      "out": 401,
      "ke": 402,
      "Ġwith": 403,
      "Ġ}": 404,
      "ĠP": 405,
      "ight": 406,
      "ort": 407,
      "ĠB": 408,
      "==": 409,
      "ere": 410,
      "ction": 411,
      "ri": 412,
      "and": 413,
      "us": 414,
      "ĊĠĠĠĠĠĠĠĠĠĠĠ": 415,
      "Ġde": 416,
      "ain": 417,
      "td": 418,
      "ack": 419,
      "li": 420,
      "ld": 421,
      "Ġas": 422,
      "qu": 423,
      "..": 424,
      "pt": 425,
      "ore": 426,
      "rom": 427,
      "end": 428,
      "Ġpro": 429,
      "iz": 430,
      "Ġex": 431,
      "Ġwas": 432,
      "()": 433,
      "pl": 434,
      "ĠH": 435,
      "ĠThe": 436,
      "Ġ*": 437,
      "Ġhe": 438,
      "ĠD": 439,
      "ew": 440,
      "ant": 441,
      "ode": 442,
      "ĠR": 443,
      "con": 444,
      "ĠN": 445,
      "><": 446,
      "'s": 447,
      "ĠF": 448,
      "Ġare": 449,
      "Ġ'": 450,
      "Ġif": 451,
      "nt": 452,
      "ĠW": 453,
      "ine": 454,
      "Ġthis": 455,
      "os": 456,
      "ect": 457,
      "Ġcom": 458,
      "rou": 459,
      "à®": 460,
      "Ġnot": 461,
      "ill": 462,
      "ĠL": 463,
      "Ġor": 464,
      "Ġ-": 465,
      "age": 466,
      "int": 467,
      "Ġat": 468,
      "ĊĠĠĠĠĠĠĠĠĠĠĠĠĠĠĠĠ": 469,
      "ess": 470,
      "de": 471,
      "ĊĠĠĠĠĠ": 472,
      "art": 473,
      "ure": 474,
      "est": 475,
      "ity": 476,
      "port": 477,
      "ile": 478,
      "px": 479,
      "ĠĠĠĠĠĠĠ": 480,
      "able": 481,
      "cl": 482,
      "ave": 483,
      "urn": 484,
      "ff": 485,
      "ĠE": 486,
      "ment": 487,
      "our": 488,
      "Ġse": 489,
      "ub": 490,
      "og": 491,
      "ive": 492,
      "Ġby": 493,
      "ref": 494,
      "ext": 495,
      "Ġ.": 496,
      "Ġtr": 497,
      "str": 498,
      "ord": 499,
      "elf": 500,
      "ĊĊ": 501,
      "ind": 502,
      "ĠG": 503,
      "ould": 504,
      "av": 505,
      "Ġle": 506,
      "ata": 507,
      "all": 508,
      "čĊ": 509,
      "></": 510,
      "div": 511,
      "Ġfrom": 512,
      "per": 513,
      "one": 514,
      "ang": 515,
      "ĠO": 516,
      "orm": 517,
      "ult": 518,
      "__": 519,
      "ial": 520,
      "Ġsh": 521,
      "ype": 522,
      "--------": 523,
      "are": 524,
      "ast": 525,
      "Ġ#": 526,
      "Ġwe": 527,
      "arg": 528,
      "ple": 529,
      "Ġch": 530,
      "turn": 531,
      "ies": 532,
      "ost": 533,
      "Ġhave": 534,
      "ust": 535,
      "act": 536,
      "ans": 537,
      "com": 538,
      "Ġj": 539,
      "ath": 540,
      "ard": 541,
      "****": 542,
      "ize": 543,
      "ign": 544,
      "ont": 545,
      "Ġcan": 546,
      "ime": 547,
      "ace": 548,
      "Ġk": 549,
      "ase": 550,
      "ib": 551,
      "Ċĉĉ": 552,
      "),": 553,
      "01": 554,
      "Ġab": 555,
      "to": 556,
      "Ġhref": 557,
      "olor": 558,
      "ĊĠĠĠĠĠĠĠĠĠĠĠĠĠĠĠ": 559,
      "Ġdo": 560,
      "Ġ</": 561,
      "##": 562,
      "ally": 563,
      "ire": 564,
      "ong": 565,
      "ide": 566,
      "ak": 567,
      "ell": 568,
      "ml": 569,
      "pre": 570,
      "->": 571,
      "Ġus": 572,
      "Ġ+": 573,
      "ition": 574,
      "\",": 575,
      "lo": 576,
      "Ġ$": 577,
      "Ġreturn": 578,
      "ok": 579,
      "ĠU": 580,
      "'t": 581,
      "dd": 582,
      "Ġ3": 583,
      "Ġbut": 584,
      "put": 585,
      "ĠJ": 586,
      "Ġim": 587,
      "ber": 588,
      "ft": 589,
      "ice": 590,
      "====": 591,
      "ip": 592,
      "Ġall": 593,
      "',": 594,
      "ock": 595,
      "ink": 596,
      "Ġ&": 597,
      "Ġsu": 598,
      "code": 599,
      "ome": 600,
      "round": 601,
      "Ġpl": 602,
      "ite": 603,
      "pro": 604,
      "Ċĉ": 605,
      "ich": 606,
      "ated": 607,
      "get": 608,
      "ork": 609,
      "In": 610,
      "Ġout": 611,
      "ary": 612,
      "Ġme": 613,
      "ĠTh": 614,
      "Ġgo": 615,
      "html": 616,
      "form": 617,
      "ence": 618,
      "âĢĻ": 619,
      "ĊĊĠĠĠ": 620,
      "ject": 621,
      "hen": 622,
      "Ġthey": 623,
      "Ġ//": 624,
      "cc": 625,
      "ĠâĢ": 626,
      "Ġne": 627,
      "ĠĠĠĠĠĠĠĠĠĠĠĠĠĠĠĠ": 628,
      ").": 629,
      "alue": 630,
      "Ġ[": 631,
      "sh": 632,
      "ther": 633,
      "ep": 634,
      "ud": 635,
      "Ġpre": 636,
      "Ġcont": 637,
      "Ġso": 638,
      "Ġar": 639,
      "The": 640,
      "Ġup": 641,
      "unction": 642,
      "ions": 643,
      "à¯": 644,
      "Ġli": 645,
      "Ġhas": 646,
      "ens": 647,
      "ef": 648,
      "ake": 649,
      "Ġself": 650,
      "čĊĠĠĠ": 651,
      "ous": 652,
      "Ġhis": 653,
      "set": 654,
      "sc": 655,
      "../": 656,
      "we": 657,
      "so": 658,
      "gh": 659,
      "ance": 660,
      "Ġwill": 661,
      "nb": 662,
      "Ġ\\": 663,
      "bo": 664,
      "ĠIn": 665,
      "au": 666,
      "Ġ4": 667,
      "ical": 668,
      "ia": 669,
      "Ġone": 670,
      "ser": 671,
      "ck": 672,
      "(\"": 673,
      "Ġback": 674,
      "Ġdef": 675,
      "ory": 676,
      "row": 677,
      "Ġsc": 678,
      "ail": 679,
      "pp": 680,
      "te": 681,
      "own": 682,
      "eth": 683,
      "Ġun": 684,
      "ll": 685,
      "ĠV": 686,
      "tp": 687,
      "very": 688,
      "Ġdis": 689,
      "Ġlo": 690,
      "ax": 691,
      "Ġwhich": 692,
      "nbsp": 693,
      "ear": 694,
      "add": 695,
      "Ġ5": 696,
      "Ġyour": 697,
      "Ġget": 698,
      "aw": 699,
      "Ġen": 700,
      "ge": 701,
      "Âł": 702,
      "ec": 703,
      "ach": 704,
      "\"><": 705,
      "que": 706,
      "du": 707,
      "Ġ/": 708,
      "ations": 709,
      "aram": 710,
      "name": 711,
      "('": 712,
      "gr": 713,
      "ree": 714,
      "Ġmore": 715,
      "Ġconst": 716,
      "self": 717,
      "////": 718,
      "Ġwould": 719,
      "br": 720,
      "ĠK": 721,
      "led": 722,
      "St": 723,
      "Ġpo": 724,
      "ground": 725,
      "idth": 726,
      "fer": 727,
      "Ġabout": 728,
      "Ġ19": 729,
      "ound": 730,
      "ild": 731,
      "ents": 732,
      "ose": 733,
      "();": 734,
      "10": 735,
      "Ġstr": 736,
      "ick": 737,
      "Ġi": 738,
      "):": 739,
      "Ġev": 740,
      "ob": 741,
      "les": 742,
      "her": 743,
      "ount": 744,
      "low": 745,
      "order": 746,
      "Ġtheir": 747,
      "Ġnew": 748,
      "Ġ:": 749,
      "ER": 750,
      "://": 751,
      "Ġthere": 752,
      "Ġres": 753,
      "ert": 754,
      "Ġmy": 755,
      "Ġtime": 756,
      "bl": 757,
      "irst": 758,
      "))": 759,
      "app": 760,
      "ĊĠĠĠĠĠĠĠĠĠ": 761,
      "ings": 762,
      "ĠY": 763,
      "ely": 764,
      "ĠIt": 765,
      "Ġwere": 766,
      "ript": 767,
      "Ġhad": 768,
      "Ġsome": 769,
      "Ġsp": 770,
      "ry": 771,
      "import": 772,
      "size": 773,
      "Ġ!": 774,
      "Ġsa": 775,
      "----------------": 776,
      "ict": 777,
      "Ġany": 778,
      "Ġpr": 779,
      "Ġper": 780,
      "Ġbo": 781,
      "ark": 782,
      "old": 783,
      "Ġinter": 784,
      "Ġno": 785,
      "ON": 786,
      "Ġwho": 787,
      "ator": 788,
      "********": 789,
      "ror": 790,
      "Ġman": 791,
      "Ġlike": 792,
      "20": 793,
      "Ġdata": 794,
      "Ġher": 795,
      "up": 796,
      "Ġpe": 797,
      "ble": 798,
      "IN": 799,
      "Ġkn": 800,
      "RE": 801,
      "color": 802,
      "vi": 803,
      "Ġover": 804,
      "cont": 805,
      "Ġ6": 806,
      "ms": 807,
      "Ġjust": 808,
      "nder": 809,
      "lect": 810,
      "ĊĠĠĠĠĠĠĠĠĠĠĠĠĠĠĠĠĠĠĠ": 811,
      "Ġother": 812,
      "ty": 813,
      "Ġcomp": 814,
      "key": 815,
      "ates": 816,
      "Ġwhen": 817,
      "http": 818,
      "ne": 819,
      "ix": 820,
      "Ġ>": 821,
      "ople": 822,
      "000": 823,
      "Ġag": 824,
      "eld": 825,
      "12": 826,
      "ays": 827,
      "Ġwork": 828,
      "Ġ==": 829,
      "Ġwhat": 830,
      "pr": 831,
      "odel": 832,
      "line": 833,
      "ev": 834,
      "ener": 835,
      "Ġpart": 836,
      "Ġvar": 837,
      "ude": 838,
      "Ġfunction": 839,
      "Ġint": 840,
      "Ġid": 841,
      "ug": 842,
      "type": 843,
      "Ġthan": 844,
      "ĠSt": 845,
      "over": 846,
      "itle": 847,
      "ield": 848,
      "enc": 849,
      "Ġname": 850,
      "Ġnum": 851,
      "11": 852,
      "Ġel": 853,
      "rap": 854,
      "ĠĠĠĠĠ": 855,
      "32": 856,
      "Ġap": 857,
      "ST": 858,
      "...": 859,
      "wo": 860,
      "esc": 861,
      "Ġro": 862,
      "Th": 863,
      "Ġsaid": 864,
      "fo": 865,
      "Ġalso": 866,
      "oid": 867,
      "Ġspe": 868,
      "ov": 869,
      "ian": 870,
      "mer": 871,
      "Ġthem": 872,
      "ull": 873,
      "right": 874,
      "ample": 875,
      "19": 876,
      "ĠHe": 877,
      "],": 878,
      "ause": 879,
      "atch": 880,
      "Ġpeople": 881,
      "back": 882,
      "ange": 883,
      "text": 884,
      "quest": 885,
      "Ġob": 886,
      "eg": 887,
      "rit": 888,
      "ish": 889,
      "Ġx": 890,
      "data": 891,
      "ton": 892,
      "Ġset": 893,
      ".\"": 894,
      "yle": 895,
      "hed": 896,
      "fter": 897,
      "cre": 898,
      "yst": 899,
      "atic": 900,
      "argin": 901,
      "ual": 902,
      "ater": 903,
      "========": 904,
      "Ġuse": 905,
      "ww": 906,
      "Ġinto": 907,
      "Ġshe": 908,
      "Ġbeen": 909,
      "ubl": 910,
      "ph": 911,
      "ource": 912,
      "cess": 913,
      "ody": 914,
      "Ġ)": 915,
      "vel": 916,
      "Ġbl": 917,
      "fr": 918,
      "play": 919,
      "ys": 920,
      "Ġonly": 921,
      "16": 922,
      "ĊĊĠ": 923,
      "roup": 924,
      "0000": 925,
      "ĠCh": 926,
      "cept": 927,
      "Ġass": 928,
      "ress": 929,
      "Ġqu": 930,
      "gt": 931,
      "Ġbackground": 932,
      "ĊĊĠĠĠĠĠĠĠ": 933,
      "read": 934,
      "class": 935,
      "ng": 936,
      "def": 937,
      "osition": 938,
      "clude": 939,
      "Ġ10": 940,
      "ME": 941,
      "Ġ_": 942,
      "Ġ|": 943,
      "čĊč": 944,
      "ystem": 945,
      "à¯į": 946,
      "Ġ%": 947,
      "Ġits": 948,
      "ily": 949,
      "OR": 950,
      "Ġhow": 951,
      "ics": 952,
      "ctor": 953,
      "='": 954,
      "Ġbec": 955,
      "ader": 956,
      "Ġyear": 957,
      "../../": 958,
      "io": 959,
      "ie": 960,
      "min": 961,
      "Ġoff": 962,
      "Ġ*/": 963,
      "Ġbet": 964,
      "top": 965,
      "Ġfirst": 966,
      "Ġthen": 967,
      "ames": 968,
      "ott": 969,
      "\":": 970,
      "ĠThis": 971,
      "ethod": 972,
      "Ġ201": 973,
      "Ġrel": 974,
      "ative": 975,
      "ific": 976,
      "ise": 977,
      "Ġend": 978,
      "Ġcolor": 979,
      "Ġad": 980,
      "Ġser": 981,
      "ade": 982,
      "Pro": 983,
      "urre": 984,
      "Ġcould": 985,
      "25": 986,
      "Ġ7": 987,
      "Ġstd": 988,
      "val": 989,
      "igh": 990,
      "but": 991,
      "Ġaut": 992,
      "âĢĿ": 993,
      "Ġwant": 994,
      "ature": 995,
      "Ġadd": 996,
      "AT": 997,
      "Ġtwo": 998,
      "Ġcomm": 999,
      "Ġvalue": 1000,
      "Ġdif": 1001,
      "Ġunder": 1002,
      "Ġ8": 1003,
      "Ġ200": 1004,
      "ons": 1005,
      "Ċĉĉĉĉ": 1006,
      "res": 1007,
      "alse": 1008,
      "eng": 1009,
      "col": 1010,
      "ove": 1011,
      "arch": 1012,
      "ault": 1013,
      "Ex": 1014,
      "adding": 1015,
      "tern": 1016,
      "iss": 1017,
      "Ġborder": 1018,
      "Ġcol": 1019,
      "const": 1020,
      "ra": 1021,
      "ument": 1022,
      "ray": 1023,
      "Ġbu": 1024,
      ";&": 1025,
      "Ġ20": 1026,
      "ank": 1027,
      "Ġacc": 1028,
      "left": 1029,
      "ues": 1030,
      "oun": 1031,
      "Ġelse": 1032,
      "Ġknow": 1033,
      "Ġcre": 1034,
      "33": 1035,
      "Ġact": 1036,
      "Ġ<<": 1037,
      "heck": 1038,
      "ough": 1039,
      "Ġneed": 1040,
      "ning": 1041,
      "ating": 1042,
      "cent": 1043,
      "abel": 1044,
      "file": 1045,
      "fig": 1046,
      "Type": 1047,
      "anc": 1048,
      "####": 1049,
      "lement": 1050,
      "Ġfe": 1051,
      "important": 1052,
      "Ġam": 1053,
      "ĊĠĠĠĠĠĠĠĠĠĠĠĠĠĠĠĠĠĠĠĠĠĠĠĠ": 1054,
      "itt": 1055,
      "Ġsub": 1056,
      "Ġdon": 1057,
      "ĠĊ": 1058,
      "ale": 1059,
      "string": 1060,
      "ient": 1061,
      "Ġtype": 1062,
      "the": 1063,
      ".</": 1064,
      "Re": 1065,
      "Str": 1066,
      "AL": 1067,
      "vers": 1068,
      "Ġtrans": 1069,
      "99": 1070,
      "Ġval": 1071,
      "Ġbecause": 1072,
      "Ġte": 1073,
      "Ġfile": 1074,
      "yn": 1075,
      "')": 1076,
      "AR": 1077,
      "Ġright": 1078,
      "olut": 1079,
      "its": 1080,
      "pen": 1081,
      "param": 1082,
      "ible": 1083,
      "ond": 1084,
      "It": 1085,
      "ĠâĢľ": 1086,
      "Ġmake": 1087,
      "ages": 1088,
      "\")": 1089,
      "Ġshould": 1090,
      "ublic": 1091,
      "15": 1092,
      "ars": 1093,
      "ool": 1094,
      "Ġdid": 1095,
      "org": 1096,
      "DE": 1097,
      "Ġthink": 1098,
      "Ġ--": 1099,
      "amp": 1100,
      "Ġ@": 1101,
      "\"\"": 1102,
      "oth": 1103,
      "rc": 1104,
      "Ġform": 1105,
      "Ġdoes": 1106,
      "man": 1107,
      "SS": 1108,
      "Ġimport": 1109,
      "js": 1110,
      "Ġresult": 1111,
      "Name": 1112,
      "Ġhim": 1113,
      "Ġpoint": 1114,
      "Ġdr": 1115,
      "Ġmargin": 1116,
      "Ġsee": 1117,
      "oint": 1118,
      "include": 1119,
      "urrent": 1120,
      "Ġpol": 1121,
      "LE": 1122,
      "Ġwidth": 1123,
      "list": 1124,
      "vice": 1125,
      "ular": 1126,
      "////////": 1127,
      "uct": 1128,
      "14": 1129,
      "Ġlook": 1130,
      "ĠUn": 1131,
      "Ġmay": 1132,
      "error": 1133,
      "ember": 1134,
      "Ġsm": 1135,
      "not": 1136,
      "Ġwhere": 1137,
      "ense": 1138,
      "ĊĠĠ": 1139,
      "uch": 1140,
      "Ġwor": 1141,
      "IT": 1142,
      "Ġstart": 1143,
      "Ġused": 1144,
      "cond": 1145,
      "Ġspec": 1146,
      "SE": 1147,
      "ask": 1148,
      "18": 1149,
      "be": 1150,
      "Ġsim": 1151,
      "ors": 1152,
      "Ġvery": 1153,
      "Ġline": 1154,
      "Ġfont": 1155,
      "Ġtest": 1156,
      "Ġmost": 1157,
      "ner": 1158,
      "ĠWe": 1159,
      "ash": 1160,
      "64": 1161,
      "Ġcal": 1162,
      "ility": 1163,
      "quire": 1164,
      "plic": 1165,
      "ule": 1166,
      "Ġplay": 1167,
      "Ġem": 1168,
      "Ġdiffer": 1169,
      "Ġph": 1170,
      "eter": 1171,
      "ĠTr": 1172,
      "Ġour": 1173,
      "Ġreg": 1174,
      "of": 1175,
      "block": 1176,
      "ement": 1177,
      "ps": 1178,
      "Ġevery": 1179,
      "ãģ": 1180,
      "Ġnow": 1181,
      "Get": 1182,
      "Ġafter": 1183,
      "CT": 1184,
      "ĠIf": 1185,
      "table": 1186,
      ";</": 1187,
      "als": 1188,
      "List": 1189,
      "Ch": 1190,
      "void": 1191,
      "ID": 1192,
      "50": 1193,
      "fore": 1194,
      "test": 1195,
      "ifi": 1196,
      "Ġway": 1197,
      "Cont": 1198,
      "Ġsom": 1199,
      "Ġgr": 1200,
      "Ġrem": 1201,
      "':": 1202,
      "Con": 1203,
      "ottom": 1204,
      "ower": 1205,
      "Ġeven": 1206,
      "201": 1207,
      "Ġtext": 1208,
      "font": 1209,
      "ĊĠĠĠĠĠĠĠĠĠĠĠĠĠĠĠĠĠĠĠĠĠĠĠĠĠĠĠĠĠĠĠĠ": 1210,
      "Tr": 1211,
      "čĊĠĠĠĠĠĠĠ": 1212,
      "30": 1213,
      "Ġà®": 1214,
      "url": 1215,
      "uff": 1216,
      "Ġthese": 1217,
      "index": 1218,
      "for": 1219,
      "ased": 1220,
      "\"></": 1221,
      "ited": 1222,
      "22": 1223,
      "air": 1224,
      "Ġnumber": 1225,
      "ollow": 1226,
      "$$": 1227,
      "}}": 1228,
      "ĠThey": 1229,
      "path": 1230,
      "width": 1231,
      "num": 1232,
      "ee": 1233,
      "Ġlist": 1234,
      "Ċĉĉĉ": 1235,
      "Ġ9": 1236,
      "loat": 1237,
      "ĠWh": 1238,
      "der": 1239,
      "Ġinst": 1240,
      "ually": 1241,
      "lp": 1242,
      "vert": 1243,
      "Data": 1244,
      "box": 1245,
      "Id": 1246,
      "ĠYou": 1247,
      "ma": 1248,
      "ength": 1249,
      "arget": 1250,
      "ĠâĢĵ": 1251,
      "Ġdist": 1252,
      "ices": 1253,
      "));": 1254,
      "].": 1255,
      "var": 1256,
      "Ġcase": 1257,
      "Com": 1258,
      "ym": 1259,
      "value": 1260,
      "imes": 1261,
      "this": 1262,
      "rough": 1263,
      "essage": 1264,
      "vent": 1265,
      "66": 1266,
      "Ġsame": 1267,
      "17": 1268,
      "ght": 1269,
      "ern": 1270,
      "Ġarg": 1271,
      "Ġco": 1272,
      "log": 1273,
      "Ġent": 1274,
      "ery": 1275,
      "dt": 1276,
      "pon": 1277,
      "view": 1278,
      "raph": 1279,
      "ĊĠĠĠĠĠĠĠĠĠĠĠĠĠĠĠĠĠĠĠĠĠĠĠ": 1280,
      "dis": 1281,
      "ward": 1282,
      "rem": 1283,
      "Ġtrue": 1284,
      "pect": 1285,
      "Ġlong": 1286,
      "Ġmuch": 1287,
      "Ġcons": 1288,
      "\");": 1289,
      "String": 1290,
      "yp": 1291,
      "ween": 1292,
      "press": 1293,
      "Ġtitle": 1294,
      "Ġgener": 1295,
      "olog": 1296,
      "ream": 1297,
      "item": 1298,
      "Ġopt": 1299,
      "ared": 1300,
      "Ġmin": 1301,
      "ting": 1302,
      "Ġagain": 1303,
      "'re": 1304,
      "ĠBut": 1305,
      "inter": 1306,
      "Ġcent": 1307,
      "80": 1308,
      "},": 1309,
      "Ġchar": 1310,
      "body": 1311,
      "Ġind": 1312,
      "iew": 1313,
      "ational": 1314,
      "py": 1315,
      "AN": 1316,
      "13": 1317,
      "arent": 1318,
      "ush": 1319,
      "from": 1320,
      "ĠĠĠĠĠĠ": 1321,
      "Ġdown": 1322,
      "Ġpadding": 1323,
      "rol": 1324,
      "ful": 1325,
      "lt": 1326,
      "Ġusing": 1327,
      "Ġmany": 1328,
      "24": 1329,
      "Ġshow": 1330,
      "Ġsol": 1331,
      "Ġbeing": 1332,
      "ĠShe": 1333,
      "reak": 1334,
      "ider": 1335,
      "Ġmat": 1336,
      "ctions": 1337,
      "ts": 1338,
      "Ġrec": 1339,
      "AME": 1340,
      "ify": 1341,
      "****************": 1342,
      "return": 1343,
      "/*": 1344,
      "ities": 1345,
      "ved": 1346,
      "Ġsay": 1347,
      "fl": 1348,
      "Ob": 1349,
      "hes": 1350,
      "EN": 1351,
      "Set": 1352,
      "alk": 1353,
      "55": 1354,
      "wh": 1355,
      "work": 1356,
      "date": 1357,
      "wn": 1358,
      "trib": 1359,
      "UL": 1360,
      "par": 1361,
      "._": 1362,
      "ince": 1363,
      "Ġ,": 1364,
      "Ġeach": 1365,
      "reat": 1366,
      "opy": 1367,
      "{\\": 1368,
      "Ġsuch": 1369,
      "Ġresp": 1370,
      "Ġequ": 1371,
      "Ġac": 1372,
      "time": 1373,
      "Ġtop": 1374,
      "Ġsystem": 1375,
      "bar": 1376,
      "Ġthrough": 1377,
      "Ġleft": 1378,
      "CO": 1379,
      "FF": 1380,
      "ĠRe": 1381,
      "ious": 1382,
      "aut": 1383,
      "Ġatt": 1384,
      "Ġfollow": 1385,
      "=\"#": 1386,
      "Ġfind": 1387,
      "Ġbetween": 1388,
      ">(": 1389,
      "quot": 1390,
      "Ġread": 1391,
      "ood": 1392,
      "Ġprodu": 1393,
      "ĠQ": 1394,
      "Ġbr": 1395,
      "Ar": 1396,
      "čĊĠ": 1397,
      "lear": 1398,
      "Ġ100": 1399,
      "sent": 1400,
      "other": 1401,
      "ĠCom": 1402,
      "ines": 1403,
      "inal": 1404,
      "meric": 1405,
      "ann": 1406,
      "Ġmodel": 1407,
      "Ġyears": 1408,
      "mp": 1409,
      ")</": 1410,
      "Ġcor": 1411,
      "Ġz": 1412,
      "Ġsize": 1413,
      "pos": 1414,
      "Ġhand": 1415,
      "rite": 1416,
      "37": 1417,
      "____": 1418,
      "ute": 1419,
      "ik": 1420,
      "Ġgood": 1421,
      "ĠPro": 1422,
      "Res": 1423,
      "doc": 1424,
      "ĠAr": 1425,
      "https": 1426,
      "++": 1427,
      "Ġrun": 1428,
      "ident": 1429,
      "gram": 1430,
      ",\"": 1431,
      "Ġhapp": 1432,
      "Ġdec": 1433,
      "ined": 1434,
      "erson": 1435,
      "indow": 1436,
      "Ġbel": 1437,
      "any": 1438,
      "Ġday": 1439,
      "clud": 1440,
      "way": 1441,
      "link": 1442,
      "ĠAnd": 1443,
      "ized": 1444,
      "Ġbefore": 1445,
      "Cl": 1446,
      "sw": 1447,
      "\";": 1448,
      "ments": 1449,
      "['": 1450,
      "Ġgiv": 1451,
      "nav": 1452,
      "Ġwell": 1453,
      "ced": 1454,
      "'m": 1455,
      "ĊĠĠĠĠĠĠĠĠĠĠĠĠĠ": 1456,
      "Ġdifferent": 1457,
      "40": 1458,
      "ger": 1459,
      "ists": 1460,
      "und": 1461,
      "ife": 1462,
      "(),": 1463,
      "Ġ},": 1464,
      "oy": 1465,
      "39": 1466,
      "face": 1467,
      "Ġprov": 1468,
      "Ġmod": 1469,
      "--------------------------------": 1470,
      "Ġwhile": 1471,
      "%;": 1472,
      "Ġdes": 1473,
      "âĢ¢": 1474,
      "Ġfr": 1475,
      "side": 1476,
      "PE": 1477,
      "Ġhere": 1478,
      "Ġrequire": 1479,
      "tt": 1480,
      "www": 1481,
      "adi": 1482,
      "ional": 1483,
      "To": 1484,
      "mod": 1485,
      "Ġeff": 1486,
      "ĉĉĉĉ": 1487,
      "Ġcall": 1488,
      "my": 1489,
      "atus": 1490,
      "med": 1491,
      "ocal": 1492,
      "Ġhelp": 1493,
      "fil": 1494,
      "Ġfound": 1495,
      "60": 1496,
      "idd": 1497,
      "Ġfl": 1498,
      "Ġproble": 1499,
      "icon": 1500,
      "Ġmon": 1501,
      "bottom": 1502,
      "Ġgu": 1503,
      "ren": 1504,
      "strong": 1505,
      "ah": 1506,
      "Ġ);": 1507,
      "rror": 1508,
      "Sc": 1509,
      "ething": 1510,
      "irect": 1511,
      "ape": 1512,
      "ĠAn": 1513,
      "by": 1514,
      "uring": 1515,
      "ouse": 1516,
      "content": 1517,
      "Ġtry": 1518,
      "']": 1519,
      "let": 1520,
      "eta": 1521,
      "fe": 1522,
      "script": 1523,
      "ets": 1524,
      "ĠAl": 1525,
      "Ġreal": 1526,
      "âĢĵ": 1527,
      "ism": 1528,
      "TR": 1529,
      "Ġexample": 1530,
      "red": 1531,
      "escript": 1532,
      "ump": 1533,
      "input": 1534,
      "Ġmade": 1535,
      "iter": 1536,
      "27": 1537,
      "Ġdisplay": 1538,
      "Ġfil": 1539,
      "Ġreally": 1540,
      "CE": 1541,
      "Ġmethod": 1542,
      ">&": 1543,
      "load": 1544,
      "ever": 1545,
      "Ġsign": 1546,
      "Ġheight": 1547,
      "ten": 1548,
      "Ġstill": 1549,
      "ouble": 1550,
      "Ġstyle": 1551,
      "ĠAmeric": 1552,
      "Ġauto": 1553,
      "Ġobject": 1554,
      "Ġposition": 1555,
      "aking": 1556,
      "vector": 1557,
      "Ġfalse": 1558,
      "Ġcontent": 1559,
      "100": 1560,
      "opt": 1561,
      "web": 1562,
      "ey": 1563,
      "34": 1564,
      "Ġstate": 1565,
      "Ġlet": 1566,
      "function": 1567,
      "28": 1568,
      "200": 1569,
      "Ġter": 1570,
      "UT": 1571,
      "Ġthose": 1572,
      "std": 1573,
      "me": 1574,
      "Ġ\"\"\"": 1575,
      "Ġsur": 1576,
      ".,": 1577,
      "Ġhigh": 1578,
      "Ġlast": 1579,
      "Ġapp": 1580,
      "];": 1581,
      "sub": 1582,
      "Ġstud": 1583,
      "ision": 1584,
      "ĠFor": 1585,
      "Ġsomething": 1586,
      "az": 1587,
      "uck": 1588,
      "ason": 1589,
      "ins": 1590,
      "version": 1591,
      "umn": 1592,
      "title": 1593,
      "ote": 1594,
      "Ġfact": 1595,
      "Ġed": 1596,
      "math": 1597,
      "lob": 1598,
      "Ġkey": 1599,
      "ormal": 1600,
      "================": 1601,
      "day": 1602,
      "util": 1603,
      "Ġboth": 1604,
      "ĠSo": 1605,
      "Ġaround": 1606,
      "pport": 1607,
      "ĠX": 1608,
      "Ġnone": 1609,
      "perty": 1610,
      "enu": 1611,
      "ces": 1612,
      "ole": 1613,
      "Ġcomple": 1614,
      "Ġtake": 1615,
      "Ġexpect": 1616,
      "_{": 1617,
      "Ġcode": 1618,
      "riend": 1619,
      "Ġ%}": 1620,
      "empl": 1621,
      "ittle": 1622,
      "ĠNew": 1623,
      "less": 1624,
      "Object": 1625,
      "ainer": 1626,
      "Ġcurrent": 1627,
      "net": 1628,
      "ences": 1629,
      "ware": 1630,
      "NAME": 1631,
      "Ġgoing": 1632,
      "Ġ18": 1633,
      "ccess": 1634,
      "amily": 1635,
      "Ġown": 1636,
      "light": 1637,
      "Ġ__": 1638,
      "He": 1639,
      "trans": 1640,
      "word": 1641,
      "On": 1642,
      "Ġtoo": 1643,
      "bers": 1644,
      "Ġgroup": 1645,
      "formation": 1646,
      "lex": 1647,
      "ava": 1648,
      "map": 1649,
      "align": 1650,
      "sl": 1651,
      "This": 1652,
      "ope": 1653,
      "height": 1654,
      "ĠEx": 1655,
      "background": 1656,
      "ĊĊĊ": 1657,
      "Ġworld": 1658,
      "Ġlog": 1659,
      "init": 1660,
      "RO": 1661,
      "Ġoper": 1662,
      "co": 1663,
      "reen": 1664,
      "Ġ&&": 1665,
      "iver": 1666,
      "md": 1667,
      "75": 1668,
      "Ġcoun": 1669,
      "à¯ģ": 1670,
      "ek": 1671,
      "ĠCon": 1672,
      "pace": 1673,
      "akes": 1674,
      "gb": 1675,
      "ĠâĢĶ": 1676,
      "iable": 1677,
      "gy": 1678,
      "Ġ$$": 1679,
      "lay": 1680,
      "uc": 1681,
      "style": 1682,
      "icle": 1683,
      "lection": 1684,
      "Ġcr": 1685,
      "ather": 1686,
      "Ġ!=": 1687,
      "ox": 1688,
      "Ġthings": 1689,
      "Ġinclud": 1690,
      "button": 1691,
      "Ġquest": 1692,
      "Im": 1693,
      "ION": 1694,
      "Value": 1695,
      "])": 1696,
      "hor": 1697,
      "90": 1698,
      "Ġpass": 1699,
      "());": 1700,
      "Ġinput": 1701,
      "search": 1702,
      "Error": 1703,
      "Ġ/*": 1704,
      "ptr": 1705,
      "ache": 1706,
      "ivers": 1707,
      "Ġlarg": 1708,
      "bt": 1709,
      "HE": 1710,
      "Ġbig": 1711,
      "urs": 1712,
      "ically": 1713,
      "Ġart": 1714,
      "thing": 1715,
      "head": 1716,
      "roll": 1717,
      "ats": 1718,
      "rix": 1719,
      "Ġopen": 1720,
      "ization": 1721,
      "44": 1722,
      "ait": 1723,
      "88": 1724,
      "Ġcar": 1725,
      "File": 1726,
      "Ġlittle": 1727,
      "ience": 1728,
      "Ġ12": 1729,
      "olution": 1730,
      "Ġht": 1731,
      "};": 1732,
      "icense": 1733,
      "Ġprocess": 1734,
      ">,": 1735,
      "Ġ16": 1736,
      "angu": 1737,
      "Ġ15": 1738,
      "TE": 1739,
      "reg": 1740,
      "Ġpar": 1741,
      "action": 1742,
      "Ġwrit": 1743,
      "Ġparam": 1744,
      "ric": 1745,
      "max": 1746,
      "Ġask": 1747,
      "comm": 1748,
      "Ġext": 1749,
      "We": 1750,
      "ains": 1751,
      "Wh": 1752,
      "ãĤ": 1753,
      "ĠZ": 1754,
      "uss": 1755,
      "LI": 1756,
      "pend": 1757,
      "try": 1758,
      "ified": 1759,
      "35": 1760,
      "img": 1761,
      "Se": 1762,
      "irc": 1763,
      "Ġpost": 1764,
      "image": 1765,
      "à®¿": 1766,
      "etail": 1767,
      "Ġfield": 1768,
      "Ġblock": 1769,
      "Ġ=>": 1770,
      "ures": 1771,
      "model": 1772,
      "ron": 1773,
      "Ġsecond": 1774,
      "new": 1775,
      "rop": 1776,
      "Sh": 1777,
      "arn": 1778,
      "LA": 1779,
      "Ind": 1780,
      "čĊĉ": 1781,
      "70": 1782,
      "())": 1783,
      "Ġtri": 1784,
      "bu": 1785,
      "oci": 1786,
      "ĠNone": 1787,
      "TD": 1788,
      "ĠAs": 1789,
      "\"]": 1790,
      "Ġsupport": 1791,
      "Ġbreak": 1792,
      "ĠSh": 1793,
      "29": 1794,
      "frac": 1795,
      "Ġsrc": 1796,
      "ought": 1797,
      "af": 1798,
      "Ġperson": 1799,
      "user": 1800,
      "ane": 1801,
      "kit": 1802,
      "ways": 1803,
      "Ġposs": 1804,
      "Ġnext": 1805,
      "Un": 1806,
      "info": 1807,
      "Ġlot": 1808,
      "21": 1809,
      "oot": 1810,
      "Ġmem": 1811,
      "Ġgover": 1812,
      "'ve": 1813,
      "Ġprogram": 1814,
      "Ġtarget": 1815,
      "MA": 1816,
      "ribut": 1817,
      "Ġmax": 1818,
      "field": 1819,
      "gan": 1820,
      "Ġdoc": 1821,
      "label": 1822,
      "Ġfin": 1823,
      "Ġmust": 1824,
      "ential": 1825,
      "ãĥ": 1826,
      "eters": 1827,
      "vious": 1828,
      "ross": 1829,
      "header": 1830,
      "Ġexpl": 1831,
      "');": 1832,
      "els": 1833,
      "26": 1834,
      "ier": 1835,
      "css": 1836,
      "Ġpublic": 1837,
      "Ġwithout": 1838,
      "Ġmean": 1839,
      "Ġke": 1840,
      "velop": 1841,
      "38": 1842,
      "}{": 1843,
      "adius": 1844,
      "aj": 1845,
      "mo": 1846,
      "bab": 1847,
      "Ġ||": 1848,
      "Ġorder": 1849,
      "Ġput": 1850,
      "section": 1851,
      "Ġmain": 1852,
      "orn": 1853,
      "ĠSc": 1854,
      "escription": 1855,
      "ished": 1856,
      "ister": 1857,
      "att": 1858,
      "Ġexper": 1859,
      "=\"../../": 1860,
      "iled": 1861,
      "Ġdefault": 1862,
      "ä¸": 1863,
      "dl": 1864,
      "Ġmom": 1865,
      "Ġcalled": 1866,
      "ternal": 1867,
      "Ġsolid": 1868,
      "Ġnever": 1869,
      "cast": 1870,
      "hem": 1871,
      "Ġhead": 1872,
      "uffer": 1873,
      "Ġcontin": 1874,
      "PI": 1875,
      "mem": 1876,
      "36": 1877,
      "Ġdisc": 1878,
      "Ġgiven": 1879,
      "().": 1880,
      "bs": 1881,
      "ants": 1882,
      "aining": 1883,
      "nal": 1884,
      "sum": 1885,
      "ĠThere": 1886,
      "ives": 1887,
      "Ġurl": 1888,
      "Ġsmall": 1889,
      "igned": 1890,
      "come": 1891,
      "border": 1892,
      "bed": 1893,
      "elt": 1894,
      "ui": 1895,
      "chool": 1896,
      "Ġgot": 1897,
      "land": 1898,
      "Ġprint": 1899,
      "Text": 1900,
      "lease": 1901,
      "LO": 1902,
      "Ġnon": 1903,
      "Ġmed": 1904,
      "ases": 1905,
      "struct": 1906,
      "Ġsince": 1907,
      "Ġide": 1908,
      "Ġlaw": 1909,
      "dict": 1910,
      "stru": 1911,
      "'>": 1912,
      "group": 1913,
      "AD": 1914,
      "Ġappro": 1915,
      "Ġcenter": 1916,
      "position": 1917,
      "ency": 1918,
      "At": 1919,
      "Ġmight": 1920,
      "Ġfriend": 1921,
      "ler": 1922,
      "45": 1923,
      "Ġchild": 1924,
      "ingle": 1925,
      "use": 1926,
      "En": 1927,
      "Ġallow": 1928,
      "aving": 1929,
      "no": 1930,
      "Item": 1931,
      "Ġcorre": 1932,
      "!--": 1933,
      "Ġnull": 1934,
      "off": 1935,
      "Ġthree": 1936,
      "ĠHow": 1937,
      "state": 1938,
      "Ġ`": 1939,
      "ulti": 1940,
      "hover": 1941,
      "Ġseem": 1942,
      "ĊĠĠĠĠĠĠĠĠĠĠĠĠĠĠĠĠĠĠĠĠĠĠĠĠĠĠĠ": 1943,
      "Ġcap": 1944,
      "Ġgovern": 1945,
      "point": 1946,
      "Ġproblem": 1947,
      "stand": 1948,
      "ness": 1949,
      "Info": 1950,
      "But": 1951,
      "Ġlife": 1952,
      "////////////////": 1953,
      "Ġear": 1954,
      "ception": 1955,
      "][": 1956,
      "chn": 1957,
      "Ġerror": 1958,
      "\">&": 1959,
      "emplate": 1960,
      "Ġ});": 1961,
      "ĠSe": 1962,
      "Ġdiv": 1963,
      "Ser": 1964,
      "Ġanother": 1965,
      "Ġmark": 1966,
      "\".": 1967,
      "{{": 1968,
      "Ġcheck": 1969,
      "ained": 1970,
      "ided": 1971,
      "son": 1972,
      "Ġfew": 1973,
      "Ġelement": 1974,
      "args": 1975,
      "ĠCl": 1976,
      "ology": 1977,
      "77": 1978,
      "cul": 1979,
      "Ref": 1980,
      "((": 1981,
      "ived": 1982,
      "oh": 1983,
      "ags": 1984,
      "Ġword": 1985,
      "Param": 1986,
      "########": 1987,
      "down": 1988,
      "Ġ...": 1989,
      "^{": 1990,
      "Ġdevelop": 1991,
      "ven": 1992,
      "aces": 1993,
      "Ġold": 1994,
      "Ġreport": 1995,
      "Ġtable": 1996,
      "sm": 1997,
      "Ġassert": 1998,
      "Ġlink": 1999,
      "Ġfollowing": 2000,
      "ĠThat": 2001,
      "';": 2002,
      "ING": 2003,
      "ULL": 2004,
      "Ġpop": 2005,
      "à®¤": 2006,
      "Ġpower": 2007,
      "weight": 2008,
      "Ġcour": 2009,
      "static": 2010,
      "Ġstand": 2011,
      "go": 2012,
      "webkit": 2013,
      "ides": 2014,
      "Ġinterest": 2015,
      "anguage": 2016,
      "čĊĠĠĠĠĠĠĠĠĠĠĠ": 2017,
      "ves": 2018,
      "unc": 2019,
      "Ġincre": 2020,
      "ird": 2021,
      "Size": 2022,
      "Node": 2023,
      "Ġpath": 2024,
      "Ġ/>": 2025,
      "Ġinit": 2026,
      "amespace": 2027,
      "Ġbuild": 2028,
      "dr": 2029,
      "Ġbetter": 2030,
      "Ġview": 2031,
      "itor": 2032,
      "ead": 2033,
      "Ġalways": 2034,
      "ager": 2035,
      "lobal": 2036,
      "ship": 2037,
      "Ġwar": 2038,
      "ename": 2039,
      "Ġlevel": 2040,
      "alth": 2041,
      "Ġvoid": 2042,
      "If": 2043,
      "Ġrgb": 2044,
      "aa": 2045,
      "IL": 2046,
      "err": 2047,
      "Ġmov": 2048,
      "ither": 2049,
      "qual": 2050,
      "oney": 2051,
      "Ġdoesn": 2052,
      "Ġeffect": 2053,
      "Ġpartic": 2054,
      "nect": 2055,
      "efore": 2056,
      "TH": 2057,
      "CK": 2058,
      "48": 2059,
      "You": 2060,
      "Ġless": 2061,
      "[\"": 2062,
      "Ġest": 2063,
      "Ġmet": 2064,
      "ene": 2065,
      "flow": 2066,
      "onse": 2067,
      "Ġhttp": 2068,
      "Ġuser": 2069,
      "Ġsl": 2070,
      ":</": 2071,
      "start": 2072,
      "istory": 2073,
      "Color": 2074,
      "print": 2075,
      "ï¼": 2076,
      "}$": 2077,
      "df": 2078,
      "ĠUS": 2079,
      "count": 2080,
      "Ġagainst": 2081,
      "Ġthing": 2082,
      "length": 2083,
      "ook": 2084,
      "ters": 2085,
      "part": 2086,
      "IS": 2087,
      "ural": 2088,
      "Test": 2089,
      "Ġoutput": 2090,
      "Ġdi": 2091,
      "Ġchange": 2092,
      "78": 2093,
      "Ġwhy": 2094,
      "Ġinformation": 2095,
      "Ġ$\\": 2096,
      "As": 2097,
      "Add": 2098,
      "Ġ+=": 2099,
      "Ġexp": 2100,
      "Ġref": 2101,
      "Ġwom": 2102,
      "config": 2103,
      "Ġorig": 2104,
      "Ġbest": 2105,
      "Ġop": 2106,
      "miss": 2107,
      "Ġfar": 2108,
      "Ġhard": 2109,
      "Ġdidn": 2110,
      "*/": 2111,
      "Ġturn": 2112,
      "For": 2113,
      "Ġcomput": 2114,
      "Int": 2115,
      "96": 2116,
      "Ġhum": 2117,
      "Ġduring": 2118,
      "Ġpay": 2119,
      "tract": 2120,
      "Ġinv": 2121,
      "adow": 2122,
      "itch": 2123,
      "ocus": 2124,
      "Ġvis": 2125,
      "source": 2126,
      "api": 2127,
      "'ll": 2128,
      "ready": 2129,
      "ules": 2130,
      "display": 2131,
      "result": 2132,
      "node": 2133,
      "MP": 2134,
      "Ġbox": 2135,
      "Ġiss": 2136,
      "Ġtyp": 2137,
      "ogle": 2138,
      "Ġ30": 2139,
      "Index": 2140,
      "Ġprobab": 2141,
      "An": 2142,
      "Ġfeel": 2143,
      "stance": 2144,
      "Ġplace": 2145,
      "Ġevent": 2146,
      "Ġdirect": 2147,
      "vest": 2148,
      "ĠOn": 2149,
      "Ġ50": 2150,
      "andom": 2151,
      "aps": 2152,
      "Ġsays": 2153,
      "95": 2154,
      "Ġsk": 2155,
      "Num": 2156,
      "radius": 2157,
      "State": 2158,
      "23": 2159,
      "Ġ?": 2160,
      "ntil": 2161,
      "Ġappe": 2162,
      "empt": 2163,
      "98": 2164,
      "aster": 2165,
      "lock": 2166,
      "ED": 2167,
      "Ġbook": 2168,
      "gg": 2169,
      "float": 2170,
      "margin": 2171,
      "ital": 2172,
      "ync": 2173,
      "present": 2174,
      "refer": 2175,
      "ector": 2176,
      "Ġabs": 2177,
      "ken": 2178,
      "Ġchang": 2179,
      "illion": 2180,
      "oll": 2181,
      "Ġ14": 2182,
      "Class": 2183,
      "Ġstring": 2184,
      "ately": 2185,
      "check": 2186,
      "ateg": 2187,
      "Ġet": 2188,
      "ML": 2189,
      "Ġeas": 2190,
      "ulation": 2191,
      "OO": 2192,
      "imit": 2193,
      "Ġconsider": 2194,
      "ustom": 2195,
      "cur": 2196,
      "emp": 2197,
      "UN": 2198,
      "Ġvalues": 2199,
      "tribut": 2200,
      "ansp": 2201,
      "UR": 2202,
      "Al": 2203,
      "lient": 2204,
      "ots": 2205,
      "Ġsw": 2206,
      "No": 2207,
      "AS": 2208,
      "Ġdesc": 2209,
      "ftware": 2210,
      "By": 2211,
      "Ġactually": 2212,
      "irl": 2213,
      "serv": 2214,
      "Ġsource": 2215,
      "65": 2216,
      "à¤": 2217,
      "acter": 2218,
      "Ġquestion": 2219,
      "object": 2220,
      "Ġ()": 2221,
      "Time": 2222,
      "Ġbeh": 2223,
      "ero": 2224,
      "ertain": 2225,
      "CH": 2226,
      "child": 2227,
      "Ġ(!": 2228,
      "png": 2229,
      "odes": 2230,
      "ĠFr": 2231,
      "Ġmonth": 2232,
      "Ġhome": 2233,
      "pec": 2234,
      "Ġtalk": 2235,
      "Ġcell": 2236,
      "lected": 2237,
      "Ġsure": 2238,
      "à®©": 2239,
      "Ġbas": 2240,
      "leg": 2241,
      "Ġkeep": 2242,
      "Ġimp": 2243,
      "ively": 2244,
      "à®ķ": 2245,
      "ĉĉĉ": 2246,
      "egin": 2247,
      "ocation": 2248,
      "Key": 2249,
      "IG": 2250,
      "}\\": 2251,
      "ideo": 2252,
      "ender": 2253,
      "68": 2254,
      "Ġlead": 2255,
      "à¸": 2256,
      "ium": 2257,
      "ĊĊĠĠĠĠĠĠĠĠĠĠĠ": 2258,
      "Ġcreate": 2259,
      "AB": 2260,
      "Ġthought": 2261,
      "Ġansw": 2262,
      "Ġlik": 2263,
      "ĠAmerican": 2264,
      "ume": 2265,
      "Ġrefer": 2266,
      "Ġweek": 2267,
      "Ġdistribut": 2268,
      "Ġkind": 2269,
      "eturn": 2270,
      "ĊĠĠĠĠĠĠĠĠĠĠĠĠ": 2271,
      "base": 2272,
      "Ġtell": 2273,
      "Ġfloat": 2274,
      "oad": 2275,
      "etwork": 2276,
      "Ġgovernment": 2277,
      "](": 2278,
      "Ġcond": 2279,
      "De": 2280,
      "Ġuntil": 2281,
      "Ġstruct": 2282,
      "Ġcontrol": 2283,
      "mit": 2284,
      "amed": 2285,
      "spect": 2286,
      "ior": 2287,
      "bd": 2288,
      "vis": 2289,
      "array": 2290,
      "Ġaway": 2291,
      "ift": 2292,
      "ET": 2293,
      "mat": 2294,
      "Ġdem": 2295,
      "met": 2296,
      "Ġalign": 2297,
      "ĠNo": 2298,
      "Ġstat": 2299,
      "âĢĶ": 2300,
      "Ġbro": 2301,
      "Ġsum": 2302,
      "'d": 2303,
      "vir": 2304,
      "Ġleg": 2305,
      "Ġmoney": 2306,
      "idden": 2307,
      "({": 2308,
      "05": 2309,
      "active": 2310,
      "Ġbit": 2311,
      "main": 2312,
      "iness": 2313,
      "ially": 2314,
      "Ġrequest": 2315,
      "ification": 2316,
      "plication": 2317,
      "Ġpat": 2318,
      "Ġanal": 2319,
      "Ġcome": 2320,
      "oin": 2321,
      "ĠInd": 2322,
      "ĠAll": 2323,
      "94": 2324,
      "mon": 2325,
      "valid": 2326,
      "create": 2327,
      "Ġperform": 2328,
      "default": 2329,
      "Element": 2330,
      "Ġ-->": 2331,
      "bol": 2332,
      "post": 2333,
      "Ġdone": 2334,
      "aim": 2335,
      "Ġfree": 2336,
      "....": 2337,
      "itions": 2338,
      "container": 2339,
      "Ġversion": 2340,
      "iversity": 2341,
      "btn": 2342,
      "lete": 2343,
      "Ġspace": 2344,
      "Ġalready": 2345,
      "04": 2346,
      "ĠOr": 2347,
      "late": 2348,
      "Ġstatic": 2349,
      "Ġbased": 2350,
      "Ġav": 2351,
      "osed": 2352,
      "ands": 2353,
      "plement": 2354,
      "=\"../": 2355,
      "Ġfre": 2356,
      "padding": 2357,
      "ral": 2358,
      "Ġsit": 2359,
      "à®°": 2360,
      "reate": 2361,
      "97": 2362,
      "{%": 2363,
      "uration": 2364,
      "mary": 2365,
      "ES": 2366,
      "Ġleast": 2367,
      "Ġthough": 2368,
      "abled": 2369,
      "cor": 2370,
      "before": 2371,
      ".âĢĿ": 2372,
      "Ġ25": 2373,
      "IC": 2374,
      "Ġtot": 2375,
      "Ġpossible": 2376,
      "Is": 2377,
      "ped": 2378,
      "Ġstep": 2379,
      "ilar": 2380,
      "dit": 2381,
      "dir": 2382,
      "atures": 2383,
      "Ġunderstand": 2384,
      "Ġrecord": 2385,
      "Ġsingle": 2386,
      "ailable": 2387,
      "Ġdocument": 2388,
      "bug": 2389,
      "Ġenough": 2390,
      "omet": 2391,
      "Ġclear": 2392,
      "Ġlight": 2393,
      "Ġindex": 2394,
      ";}": 2395,
      "ensor": 2396,
      "Ġitem": 2397,
      "ĠPh": 2398,
      "bin": 2399,
      "mark": 2400,
      "ãĢ": 2401,
      "ĠWhen": 2402,
      "ored": 2403,
      "src": 2404,
      "page": 2405,
      "DO": 2406,
      "Ġpolit": 2407,
      "asure": 2408,
      "ĠWhat": 2409,
      "Ġlib": 2410,
      "Ġimportant": 2411,
      "Ġcommun": 2412,
      "lang": 2413,
      "67": 2414,
      "Ġgive": 2415,
      "Ġwhe": 2416,
      "?\"": 2417,
      "ĠEX": 2418,
      "oo": 2419,
      "Ġ};": 2420,
      "ration": 2421,
      "Ġgreat": 2422,
      "Ġ11": 2423,
      "Array": 2424,
      "pression": 2425,
      "Ġret": 2426,
      "ury": 2427,
      "NO": 2428,
      "Path": 2429,
      "ories": 2430,
      "Ġmeans": 2431,
      "space": 2432,
      "Ġ}}": 2433,
      "Ġcare": 2434,
      "ety": 2435,
      "ources": 2436,
      "Ġlater": 2437,
      "cd": 2438,
      "Ġreason": 2439,
      "Ġdouble": 2440,
      "ĠLicense": 2441,
      "&#": 2442,
      "pack": 2443,
      "lib": 2444,
      "outh": 2445,
      "Ġvariable": 2446,
      "Ġstop": 2447,
      "________": 2448,
      "ids": 2449,
      "acy": 2450,
      "ĠAt": 2451,
      "assert": 2452,
      "Ġpage": 2453,
      "Ġabove": 2454,
      "pi": 2455,
      "ixed": 2456,
      "Ġlocal": 2457,
      "(--": 2458,
      "Event": 2459,
      "Ġnp": 2460,
      "Ġimage": 2461,
      "ention": 2462,
      "Ġwater": 2463,
      "Mod": 2464,
      "âĪ": 2465,
      "Ġtechn": 2466,
      "bit": 2467,
      "Fr": 2468,
      "EQ": 2469,
      "Ġjob": 2470,
      "Ġproject": 2471,
      "Ġexist": 2472,
      "tes": 2473,
      "itive": 2474,
      "tribute": 2475,
      "pert": 2476,
      "utils": 2477,
      "cal": 2478,
      "orth": 2479,
      "aterial": 2480,
      "aper": 2481,
      "And": 2482,
      "Ġbus": 2483,
      "comp": 2484,
      "Def": 2485,
      "inc": 2486,
      "ĊĠĠĠĠĠĠ": 2487,
      "run": 2488,
      "ĠIs": 2489,
      "ina": 2490,
      "Ġconfig": 2491,
      "orld": 2492,
      "conom": 2493,
      "ru": 2494,
      "sv": 2495,
      "Ġwent": 2496,
      "Ġrgba": 2497,
      "Ġbool": 2498,
      "bb": 2499,
      "Ġca": 2500,
      "icy": 2501,
      "REF": 2502,
      "iving": 2503,
      "rel": 2504,
      "uments": 2505,
      "olute": 2506,
      "ession": 2507,
      "ension": 2508,
      "push": 2509,
      "tings": 2510,
      "abs": 2511,
      "Ġbody": 2512,
      "All": 2513,
      "ply": 2514,
      "View": 2515,
      "shadow": 2516,
      "gress": 2517,
      "Ġeither": 2518,
      "ieve": 2519,
      "Out": 2520,
      "Ġdel": 2521,
      "Ġconf": 2522,
      "book": 2523,
      "ajor": 2524,
      "Ġinte": 2525,
      "Ġident": 2526,
      "Ġschool": 2527,
      "ĠÐ": 2528,
      "ĊĠĠĠĠĠĠĠĠĠĠĠĠĠĠĠĠĠ": 2529,
      "Ġinvest": 2530,
      "Line": 2531,
      "Ġelect": 2532,
      "Ġsaw": 2533,
      "ĠIN": 2534,
      "Ġincluding": 2535,
      "gl": 2536,
      "Ġgl": 2537,
      "uint": 2538,
      "Ġtold": 2539,
      "31": 2540,
      "Form": 2541,
      "ivate": 2542,
      "True": 2543,
      "place": 2544,
      "thon": 2545,
      "Ġproduct": 2546,
      "Ġcur": 2547,
      "method": 2548,
      ",âĢĿ": 2549,
      "itional": 2550,
      "acity": 2551,
      "uro": 2552,
      "format": 2553,
      "ĠAd": 2554,
      "Ġplan": 2555,
      "ĠOne": 2556,
      "Ġrange": 2557,
      "ique": 2558,
      "ĠTrump": 2559,
      "Ġresults": 2560,
      "Ġtimes": 2561,
      "Ġlarge": 2562,
      "begin": 2563,
      "à®¾": 2564,
      "Ã©": 2565,
      "Ġsever": 2566,
      "ymbol": 2567,
      "Ġra": 2568,
      "append": 2569,
      "Ġgame": 2570,
      "Ġhappen": 2571,
      "02": 2572,
      "Ġdat": 2573,
      "Ġcopy": 2574,
      "Ġsomeone": 2575,
      "à®®": 2576,
      "74": 2577,
      "ĠNULL": 2578,
      "oice": 2579,
      "Ġgirl": 2580,
      "ĠRes": 2581,
      "do": 2582,
      "ohn": 2583,
      "tra": 2584,
      "Ġocc": 2585,
      "(&": 2586,
      "AA": 2587,
      "Ġwhite": 2588,
      "Ġfull": 2589,
      "db": 2590,
      "Ġknown": 2591,
      "Ġener": 2592,
      "gle": 2593,
      "Ġwanted": 2594,
      "ances": 2595,
      "Ġcount": 2596,
      "most": 2597,
      "used": 2598,
      "ators": 2599,
      "tx": 2600,
      "çļ": 2601,
      "asc": 2602,
      "unk": 2603,
      "Ġcover": 2604,
      "duct": 2605,
      "Field": 2606,
      "Code": 2607,
      "çļĦ": 2608,
      "Ġlabel": 2609,
      "tty": 2610,
      "ality": 2611,
      "ĠUnited": 2612,
      "oud": 2613,
      "Ġshort": 2614,
      "Ġable": 2615,
      ">.": 2616,
      "85": 2617,
      "true": 2618,
      "Table": 2619,
      "ĠLe": 2620,
      "Ġnode": 2621,
      "alf": 2622,
      "output": 2623,
      "Ġpres": 2624,
      "ecut": 2625,
      "Ġanswer": 2626,
      "Ġmessage": 2627,
      "apt": 2628,
      "Qu": 2629,
      "Or": 2630,
      "ording": 2631,
      "Hand": 2632,
      "Ġoffic": 2633,
      "Ġnear": 2634,
      "Ġprom": 2635,
      "ired": 2636,
      "etails": 2637,
      "ocial": 2638,
      "dat": 2639,
      "older": 2640,
      "Link": 2641,
      "ĠGet": 2642,
      ">>": 2643,
      "ended": 2644,
      "ari": 2645,
      "ĠTo": 2646,
      "Up": 2647,
      "ised": 2648,
      "menu": 2649,
      "Map": 2650,
      "Ġ17": 2651,
      "Ġwr": 2652,
      "Ġbase": 2653,
      "filename": 2654,
      "wrap": 2655,
      "ards": 2656,
      "Ġdoing": 2657,
      "Opt": 2658,
      "ĠOb": 2659,
      "Ġnormal": 2660,
      "********************************": 2661,
      "ĠPr": 2662,
      "Ġstarted": 2663,
      "ifier": 2664,
      "lied": 2665,
      "Ċĉĉĉĉĉ": 2666,
      "ming": 2667,
      "annel": 2668,
      "čĊčĊĠĠĠ": 2669,
      "icro": 2670,
      "SP": 2671,
      "Ġsupp": 2672,
      "ending": 2673,
      "tot": 2674,
      "Ġidea": 2675,
      "gen": 2676,
      "OP": 2677,
      "iod": 2678,
      "ĠDe": 2679,
      "Ġside": 2680,
      "Ġhaving": 2681,
      "Reg": 2682,
      "Ġspecific": 2683,
      "ĠMay": 2684,
      "ithub": 2685,
      "Ġwithin": 2686,
      "Ġpoints": 2687,
      "Ġrepresent": 2688,
      "Ġmakes": 2689,
      "Ġoften": 2690,
      "Ġever": 2691,
      "na": 2692,
      "Pl": 2693,
      "Ġaccess": 2694,
      "Man": 2695,
      "sk": 2696,
      "bool": 2697,
      "call": 2698,
      "###": 2699,
      "Ġpresent": 2700,
      "viron": 2701,
      "char": 2702,
      "!\"": 2703,
      "Val": 2704,
      "Ġdescri": 2705,
      "Ġcost": 2706,
      "case": 2707,
      "edia": 2708,
      "Ġoptions": 2709,
      "Ġcalcul": 2710,
      "Ġbad": 2711,
      "Ġ24": 2712,
      "Ġfour": 2713,
      "CC": 2714,
      "with": 2715,
      "ports": 2716,
      "None": 2717,
      "Ġblack": 2718,
      "java": 2719,
      "open": 2720,
      "ffic": 2721,
      "Ġtoget": 2722,
      "Ġtogether": 2723,
      "igation": 2724,
      "first": 2725,
      "ied": 2726,
      "Ġmaking": 2727,
      "ivity": 2728,
      "Ġcame": 2729,
      "Ġmulti": 2730,
      "Ġteam": 2731,
      "ĊĊĉ": 2732,
      "US": 2733,
      "Ġanything": 2734,
      "perties": 2735,
      "ling": 2736,
      "ging": 2737,
      "Ġtook": 2738,
      "Ġ**": 2739,
      "([": 2740,
      "thers": 2741,
      "Ġenergy": 2742,
      "write": 2743,
      "rt": 2744,
      "Ġgrow": 2745,
      "Ġ{%": 2746,
      "08": 2747,
      "lev": 2748,
      "++)": 2749,
      "Ġisn": 2750,
      "Not": 2751,
      "Ġcertain": 2752,
      "hand": 2753,
      "ret": 2754,
      "heet": 2755,
      "Ġgeneral": 2756,
      "meta": 2757,
      "ĠĠĠĠĠĠĠĠĠĠĠĠĠĠĠĠĠĠĠĠĠĠĠĠĠĠĠĠĠĠĠĠ": 2758,
      "len": 2759,
      "Of": 2760,
      "Ġarea": 2761,
      "Ġrece": 2762,
      "lish": 2763,
      "ability": 2764,
      "ged": 2765,
      "ĠAp": 2766,
      "EX": 2767,
      "usic": 2768,
      "ĠEng": 2769,
      "Ġaff": 2770,
      "Ġcompany": 2771,
      "Ġprevious": 2772,
      "wik": 2773,
      "Ġmag": 2774,
      "Ġfore": 2775,
      "imate": 2776,
      "Ġpack": 2777,
      "irection": 2778,
      "Ġpos": 2779,
      "Ġcirc": 2780,
      "su": 2781,
      "Ġflex": 2782,
      "ram": 2783,
      "Ġenc": 2784,
      "Ġresponse": 2785,
      "Inter": 2786,
      "ux": 2787,
      "Ġfun": 2788,
      "family": 2789,
      "ONT": 2790,
      "Ġ;": 2791,
      "Ġeng": 2792,
      "ibility": 2793,
      "ograph": 2794,
      "So": 2795,
      "imum": 2796,
      "Ġsuper": 2797,
      "Ġhuman": 2798,
      "ERT": 2799,
      "Context": 2800,
      "Ġrest": 2801,
      "Ġmajor": 2802,
      "CODE": 2803,
      "Ġ13": 2804,
      "idence": 2805,
      "ĠCan": 2806,
      "Ġsuccess": 2807,
      "HT": 2808,
      "Ġload": 2809,
      "ball": 2810,
      "imation": 2811,
      "ches": 2812,
      "Input": 2813,
      "84": 2814,
      "Ġrow": 2815,
      "Ġwhether": 2816,
      "ĊĊĊĊ": 2817,
      "pan": 2818,
      "Col": 2819,
      "transform": 2820,
      "<!--": 2821,
      "ponent": 2822,
      "PECT": 2823,
      "Ġaccount": 2824,
      "Ġlay": 2825,
      "Ġvol": 2826,
      "ounds": 2827,
      "ploy": 2828,
      "era": 2829,
      "čĊčĊ": 2830,
      "Ġ->": 2831,
      "DI": 2832,
      "Ġavailable": 2833,
      "Ġonce": 2834,
      "})": 2835,
      "Ð¾": 2836,
      "iff": 2837,
      "Count": 2838,
      "Ġparent": 2839,
      "ĠStr": 2840,
      "Ġ\"\\": 2841,
      "gin": 2842,
      "Ġtransform": 2843,
      "number": 2844,
      "Ġlanguage": 2845,
      "Ġface": 2846,
      "ai": 2847,
      "acing": 2848,
      "Model": 2849,
      "ians": 2850,
      "ison": 2851,
      "Ġprobably": 2852,
      "message": 2853,
      "now": 2854,
      "Ġwomen": 2855,
      "Ġfamily": 2856,
      "process": 2857,
      "Ġhappy": 2858,
      "Le": 2859,
      "ffer": 2860,
      "Ġfa": 2861,
      "STR": 2862,
      "github": 2863,
      "center": 2864,
      "Ġq": 2865,
      "ĠMar": 2866,
      "Ġmass": 2867,
      "Ġtotal": 2868,
      "ĠAN": 2869,
      "Ġwon": 2870,
      "Pr": 2871,
      "Ġasked": 2872,
      "uture": 2873,
      "Ġpur": 2874,
      "core": 2875,
      "Ġorgan": 2876,
      "ilt": 2877,
      "ination": 2878,
      "Ġcommon": 2879,
      "Ġdom": 2880,
      "ysis": 2881,
      "quence": 2882,
      "iddle": 2883,
      "UE": 2884,
      "Ġcourse": 2885,
      "From": 2886,
      "signed": 2887,
      "Buffer": 2888,
      "Ġsimple": 2889,
      "Ġupon": 2890,
      "Ġparticular": 2891,
      "wards": 2892,
      "Ġlow": 2893,
      "Ġvector": 2894,
      "json": 2895,
      "ÂłÂł": 2896,
      "Top": 2897,
      "Per": 2898,
      "level": 2899,
      "idget": 2900,
      "Log": 2901,
      "pha": 2902,
      "./": 2903,
      "imal": 2904,
      "ĊĠĠĠĠĠĠĠĠĠĠĠĠĠĠĠĠĠĠĠĠĠĠĠĠĠĠĠĠĠĠĠ": 2905,
      "has": 2906,
      "spec": 2907,
      "Ġlength": 2908,
      "Ġformat": 2909,
      "Ġvalign": 2910,
      "anch": 2911,
      "Ġseveral": 2912,
      "Ġaction": 2913,
      "86": 2914,
      "YPE": 2915,
      "irt": 2916,
      "ĠSer": 2917,
      "current": 2918,
      "={": 2919,
      "Ġpercent": 2920,
      "jav": 2921,
      "Ġeconom": 2922,
      "cy": 2923,
      "ĠStates": 2924,
      "ĠUniversity": 2925,
      "ours": 2926,
      "Ġinitial": 2927,
      "ica": 2928,
      "Image": 2929,
      "oph": 2930,
      "peat": 2931,
      "/>": 2932,
      "OT": 2933,
      "03": 2934,
      "gor": 2935,
      "ustr": 2936,
      "Ġseries": 2937,
      "ĊĊĠĠĠĠĠ": 2938,
      "Call": 2939,
      "stream": 2940,
      "Ġins": 2941,
      ".)": 2942,
      "filter": 2943,
      "Ġcountry": 2944,
      "ae": 2945,
      "Ġwrite": 2946,
      "Ðµ": 2947,
      "yles": 2948,
      "umb": 2949,
      "FA": 2950,
      "Ġpretty": 2951,
      "76": 2952,
      "ĠCol": 2953,
      "oper": 2954,
      "User": 2955,
      "Ġsimilar": 2956,
      "istic": 2957,
      "ilit": 2958,
      "mm": 2959,
      "Ġgraph": 2960,
      "sg": 2961,
      "vices": 2962,
      "Ġmiss": 2963,
      "hing": 2964,
      "ocr": 2965,
      "06": 2966,
      "ival": 2967,
      "po": 2968,
      "uation": 2969,
      "_.": 2970,
      "ched": 2971,
      "Point": 2972,
      "select": 2973,
      "rist": 2974,
      "none": 2975,
      "Ġalong": 2976,
      "Ð°": 2977,
      "status": 2978,
      "Ġexpected": 2979,
      "nection": 2980,
      "alt": 2981,
      "sd": 2982,
      "Base": 2983,
      "Ġann": 2984,
      "aring": 2985,
      "Dis": 2986,
      "idual": 2987,
      "Ġtransp": 2988,
      "Ġrequired": 2989,
      "uary": 2990,
      "aph": 2991,
      "Ġhig": 2992,
      "Ġcolumn": 2993,
      "xy": 2994,
      "toc": 2995,
      "moz": 2996,
      "Message": 2997,
      "iev": 2998,
      "Ġseen": 2999,
      "Ġdepend": 3000,
      "Config": 3001,
      "Ġworking": 3002,
      "Ġhold": 3003,
      "last": 3004,
      "Ġcharacter": 3005,
      "Ġrelation": 3006,
      "rew": 3007,
      "aint": 3008,
      "What": 3009,
      "board": 3010,
      "ns": 3011,
      "izing": 3012,
      "Ġspecial": 3013,
      "Ġinclude": 3014,
      "ĠLily": 3015,
      "params": 3016,
      "Refer": 3017,
      "Ġfig": 3018,
      "gorith": 3019,
      "Ġdeter": 3020,
      "ĠRep": 3021,
      "cb": 3022,
      "Ġ===": 3023,
      "ĠEXPECT": 3024,
      "arge": 3025,
      "reference": 3026,
      "Ġlearn": 3027,
      "dom": 3028,
      "07": 3029,
      "grad": 3030,
      "Ġmen": 3031,
      "card": 3032,
      "Ġsort": 3033,
      "Ġnumbers": 3034,
      "Ġclaim": 3035,
      "Ġtrying": 3036,
      "module": 3037,
      "Ġinstead": 3038,
      "Ġphys": 3039,
      "à®²": 3040,
      "ĠÂ": 3041,
      "There": 3042,
      "Trans": 3043,
      "une": 3044,
      "Ġadv": 3045,
      "ĠHREF": 3046,
      "Ġindic": 3047,
      "aced": 3048,
      "auto": 3049,
      "document": 3050,
      ")(": 3051,
      "ĠĠĠĠĠĠĠĠĠĠĠ": 3052,
      "Ġcontext": 3053,
      "ĠCal": 3054,
      "Ġaw": 3055,
      "Ġcommand": 3056,
      "Ġprof": 3057,
      "eral": 3058,
      "ĠOR": 3059,
      "Ġwindow": 3060,
      "ued": 3061,
      "ĠJohn": 3062,
      "Ġexcept": 3063,
      "Ġvert": 3064,
      "Ġfriends": 3065,
      "amples": 3066,
      "Result": 3067,
      "event": 3068,
      "Ġnetwork": 3069,
      "Ġfiles": 3070,
      "Ġrecent": 3071,
      "urther": 3072,
      "Ġvalid": 3073,
      "uth": 3074,
      "arr": 3075,
      "ĠHowever": 3076,
      "Ġsent": 3077,
      "00000000": 3078,
      "Ġchildren": 3079,
      "ze": 3080,
      "Ġsex": 3081,
      "Ġresearch": 3082,
      "Ġdays": 3083,
      "Ġpot": 3084,
      "47": 3085,
      "inary": 3086,
      "Ġpress": 3087,
      "rary": 3088,
      "rm": 3089,
      "ynam": 3090,
      "foot": 3091,
      "ike": 3092,
      "Ġdesign": 3093,
      "atter": 3094,
      "vironment": 3095,
      "earch": 3096,
      "sert": 3097,
      "ĠOF": 3098,
      "ursor": 3099,
      "ĠTe": 3100,
      "Ġ::": 3101,
      "'),": 3102,
      "esh": 3103,
      "bf": 3104,
      "ks": 3105,
      "por": 3106,
      "ley": 3107,
      "Ġclose": 3108,
      "Ġlen": 3109,
      "ĊĠĠĠĠĠĠĠĠĠĠĠĠĠĠ": 3110,
      "rec": 3111,
      "tag": 3112,
      "TI": 3113,
      "images": 3114,
      "Ġredu": 3115,
      "cell": 3116,
      "DD": 3117,
      "Request": 3118,
      "Ġ{}": 3119,
      "Ġgetting": 3120,
      "Ġey": 3121,
      "Ġ40": 3122,
      "Ġpast": 3123,
      "Ġair": 3124,
      "Ġred": 3125,
      "With": 3126,
      "Ġstory": 3127,
      "~~": 3128,
      "template": 3129,
      "56": 3130,
      "Label": 3131,
      "Ġ++": 3132,
      "sq": 3133,
      "ï¼Į": 3134,
      "Ġpy": 3135,
      "Ġamount": 3136,
      "Ġdeal": 3137,
      "step": 3138,
      "Ġsearch": 3139,
      "à®±": 3140,
      "Ġuint": 3141,
      "ĠGo": 3142,
      "public": 3143,
      "Ġsoftware": 3144,
      "Ġcrit": 3145,
      "Ġnothing": 3146,
      "tool": 3147,
      "arning": 3148,
      "Ġbusiness": 3149,
      "ached": 3150,
      "PP": 3151,
      "query": 3152,
      "raw": 3153,
      "iment": 3154,
      "angle": 3155,
      "ĠPl": 3156,
      "Ġworks": 3157,
      "using": 3158,
      "Ġaddress": 3159,
      "46": 3160,
      "aid": 3161,
      "double": 3162,
      "inition": 3163,
      "Ġrather": 3164,
      "RA": 3165,
      "Ġos": 3166,
      "ĠMy": 3167,
      "ĠBe": 3168,
      "Ġcorrect": 3169,
      "ama": 3170,
      "fa": 3171,
      "uild": 3172,
      "dim": 3173,
      "Ġstrong": 3174,
      "Ġbecome": 3175,
      "ĠIm": 3176,
      "One": 3177,
      "ta": 3178,
      "ĠBl": 3179,
      "Ġinstance": 3180,
      "Ġport": 3181,
      "Ġhealth": 3182,
      "\"),": 3183,
      "=\"_": 3184,
      "Ġsugg": 3185,
      "Ġfund": 3186,
      "Ġnamed": 3187,
      "Ġsuggest": 3188,
      "itut": 3189,
      "izer": 3190,
      "define": 3191,
      "shape": 3192,
      "imary": 3193,
      "Ġhistory": 3194,
      "Ġbelieve": 3195,
      "Ġwrong": 3196,
      ":#": 3197,
      "åı": 3198,
      "ĠDo": 3199,
      "mission": 3200,
      "Ġmove": 3201,
      "verse": 3202,
      "find": 3203,
      "){": 3204,
      "Ġexact": 3205,
      "ops": 3206,
      "49": 3207,
      "čĊĠĠĠĠĠĠĠĠĠĠĠĠĠĠĠ": 3208,
      "lean": 3209,
      "OS": 3210,
      "ured": 3211,
      "iction": 3212,
      "Ġimplement": 3213,
      "Ġsection": 3214,
      "Ġoriginal": 3215,
      "aged": 3216,
      "aken": 3217,
      "Ġothers": 3218,
      "Ġmeasure": 3219,
      "à®¯": 3220,
      "pol": 3221,
      "Ġarray": 3222,
      "Ġche": 3223,
      "ĠNot": 3224,
      "Fl": 3225,
      "Mat": 3226,
      "gs": 3227,
      "Ġthrow": 3228,
      "Ġentire": 3229,
      "à¯Ī": 3230,
      "Ġstudy": 3231,
      "resp": 3232,
      "ones": 3233,
      "System": 3234,
      "09": 3235,
      "New": 3236,
      "================================": 3237,
      "vec": 3238,
      "Ġdiff": 3239,
      "frame": 3240,
      "Ġ]": 3241,
      "GE": 3242,
      "Ġrate": 3243,
      "Ġrelative": 3244,
      "CA": 3245,
      "Ġfunctions": 3246,
      "ering": 3247,
      "wise": 3248,
      "ried": 3249,
      "NT": 3250,
      "Ġwhole": 3251,
      "arm": 3252,
      "à®Ł": 3253,
      "namespace": 3254,
      "Ġauthor": 3255,
      "hr": 3256,
      "else": 3257,
      "Ġabsolute": 3258,
      "Ġwalk": 3259,
      "request": 3260,
      "Ġinvol": 3261,
      "});": 3262,
      "Ġdue": 3263,
      "Ġhouse": 3264,
      "Ġarr": 3265,
      "Ġlove": 3266,
      "Ġcamp": 3267,
      "Ġroom": 3268,
      "Ġmillion": 3269,
      "Ġcomplet": 3270,
      "Ġ{{": 3271,
      "Ġdiscuss": 3272,
      "čĊĉĉ": 3273,
      "Ġframe": 3274,
      "udio": 3275,
      "aught": 3276,
      "target": 3277,
      "Ġloc": 3278,
      "58": 3279,
      "UI": 3280,
      "Box": 3281,
      "ĠPer": 3282,
      "ĠSu": 3283,
      "lip": 3284,
      "Ġsite": 3285,
      "Return": 3286,
      "element": 3287,
      "Ġattack": 3288,
      "ising": 3289,
      "<<": 3290,
      "Ġseems": 3291,
      "SC": 3292,
      "ober": 3293,
      "Ġtool": 3294,
      "Sub": 3295,
      "\\\\": 3296,
      "Ġrandom": 3297,
      "Button": 3298,
      "ĠFe": 3299,
      "Ġdraw": 3300,
      "Ġyet": 3301,
      "cer": 3302,
      "Ġinf": 3303,
      "ĠGe": 3304,
      "Ġdeath": 3305,
      "Ġterms": 3306,
      "\">(": 3307,
      "ĠBrit": 3308,
      "struction": 3309,
      "FONT": 3310,
      "itter": 3311,
      "OL": 3312,
      "ĠYork": 3313,
      "Ġmind": 3314,
      "Ġproblems": 3315,
      "Ġrot": 3316,
      "ĠGr": 3317,
      "ĠTrue": 3318,
      "Ġlate": 3319,
      "Ġvari": 3320,
      "93": 3321,
      "Ġdim": 3322,
      "ends": 3323,
      "urope": 3324,
      "92": 3325,
      "aff": 3326,
      "INT": 3327,
      "unch": 3328,
      "verage": 3329,
      "Ġlikely": 3330,
      "anks": 3331,
      "KE": 3332,
      "ently": 3333,
      "Ġmarket": 3334,
      "Ġdefined": 3335,
      "Ġbelow": 3336,
      "description": 3337,
      "72": 3338,
      "oss": 3339,
      "Ġproperty": 3340,
      "Ġearly": 3341,
      "column": 3342,
      "Ġmatch": 3343,
      "erman": 3344,
      "Ġlooking": 3345,
      "42": 3346,
      "(\\": 3347,
      "sole": 3348,
      "Ġservice": 3349,
      "ERR": 3350,
      "Ġpubl": 3351,
      "Ġtax": 3352,
      "Ġinternal": 3353,
      "Ġmap": 3354,
      "Ġant": 3355,
      "Ġdet": 3356,
      "next": 3357,
      "Ġmar": 3358,
      "ges": 3359,
      "SI": 3360,
      "where": 3361,
      "ii": 3362,
      "Ġalmost": 3363,
      "Ġax": 3364,
      "idx": 3365,
      "ä»": 3366,
      "Dev": 3367,
      "Ġcompon": 3368,
      "Ph": 3369,
      "Ġes": 3370,
      "uid": 3371,
      "Ġcut": 3372,
      "$.": 3373,
      "Ġperiod": 3374,
      "Ġmatrix": 3375,
      "EL": 3376,
      "obj": 3377,
      "refix": 3378,
      "Number": 3379,
      "rior": 3380,
      "icult": 3381,
      "oke": 3382,
      "show": 3383,
      "MM": 3384,
      "Ġetc": 3385,
      "elta": 3386,
      "Ġlooked": 3387,
      "ny": 3388,
      "=\"/": 3389,
      "Ġgen": 3390,
      "fff": 3391,
      "inner": 3392,
      "Ġargument": 3393,
      "Ġvideo": 3394,
      "(-": 3395,
      "ialog": 3396,
      "cf": 3397,
      "ĠEn": 3398,
      ";<": 3399,
      "depend": 3400,
      "/**": 3401,
      "II": 3402,
      "Equal": 3403,
      "exp": 3404,
      "rypt": 3405,
      "255": 3406,
      "Ad": 3407,
      "Ġrole": 3408,
      "build": 3409,
      "ĠCont": 3410,
      "rodu": 3411,
      "Lay": 3412,
      "000000": 3413,
      "here": 3414,
      "Ġcreated": 3415,
      "PT": 3416,
      "Ġliter": 3417,
      "Function": 3418,
      "lies": 3419,
      "Ġpract": 3420,
      "82": 3421,
      "ĠInt": 3422,
      "quare": 3423,
      "Ġlimit": 3424,
      "Ġwords": 3425,
      "57": 3426,
      "ĠMan": 3427,
      "though": 3428,
      "Ġmatter": 3429,
      "DL": 3430,
      "Window": 3431,
      "pty": 3432,
      "Ġscale": 3433,
      "Ġhalf": 3434,
      "Ġdest": 3435,
      "Ð¸": 3436,
      "]);": 3437,
      "Ġindiv": 3438,
      "Ġlinear": 3439,
      "ament": 3440,
      "Ġsimply": 3441,
      "Ġmor": 3442,
      "Fil": 3443,
      "That": 3444,
      "opyright": 3445,
      "Ġfall": 3446,
      "ersion": 3447,
      "gener": 3448,
      "Ġfail": 3449,
      "Ġpick": 3450,
      "ĠMat": 3451,
      "Ġoutside": 3452,
      "Ġder": 3453,
      "Ġfinal": 3454,
      "87": 3455,
      "Ġtre": 3456,
      "Ġargs": 3457,
      "hpp": 3458,
      "54": 3459,
      "Ġtrack": 3460,
      "Ġbecame": 3461,
      "oto": 3462,
      "Last": 3463,
      "Ġeverything": 3464,
      "à®µ": 3465,
      "Ġstandard": 3466,
      "Ġneg": 3467,
      "Ġlive": 3468,
      "ĠTim": 3469,
      "Ġquick": 3470,
      "layer": 3471,
      "Ġacross": 3472,
      "ements": 3473,
      "Ġdecl": 3474,
      "Ġstore": 3475,
      "spl": 3476,
      "ĠReg": 3477,
      "Ġund": 3478,
      "Ġland": 3479,
      "Ġago": 3480,
      "device": 3481,
      "Ġcontinue": 3482,
      "iol": 3483,
      "ips": 3484,
      "LASS": 3485,
      "fact": 3486,
      "ĠBr": 3487,
      "__(": 3488,
      "join": 3489,
      "sim": 3490,
      "%,": 3491,
      "Ġsense": 3492,
      "Ġassoci": 3493,
      "Once": 3494,
      "pg": 3495,
      "First": 3496,
      "EE": 3497,
      "comment": 3498,
      "Ġitself": 3499,
      "graph": 3500,
      "ected": 3501,
      "Ġbottom": 3502,
      "orage": 3503,
      "mb": 3504,
      "Ġbegin": 3505,
      "high": 3506,
      "Ġlinks": 3507,
      "update": 3508,
      "Ġcannot": 3509,
      "ĠAss": 3510,
      "Ġtw": 3511,
      "Ġbi": 3512,
      "ĠGener": 3513,
      "Ġpaper": 3514,
      "69": 3515,
      "atform": 3516,
      "ÑĤ": 3517,
      "ĠBy": 3518,
      "FI": 3519,
      "ĠThese": 3520,
      "kn": 3521,
      "ategory": 3522,
      "Ġbutton": 3523,
      "Ġconc": 3524,
      "Ġarticle": 3525,
      "context": 3526,
      "():": 3527,
      "ĠAdd": 3528,
      "ving": 3529,
      "ube": 3530,
      "Ġopp": 3531,
      "Ġtoday": 3532,
      "Ġforce": 3533,
      "ĠCar": 3534,
      "à®ª": 3535,
      "second": 3536,
      "olean": 3537,
      "Ġfelt": 3538,
      "Ġnav": 3539,
      "ĠEurope": 3540,
      "instance": 3541,
      "59": 3542,
      "ĠPy": 3543,
      "cp": 3544,
      "Ġcomplex": 3545,
      "Ġcoll": 3546,
      "Ġfuture": 3547,
      "Ġmusic": 3548,
      "Ġsolution": 3549,
      "Group": 3550,
      "stars": 3551,
      "client": 3552,
      "eline": 3553,
      "raft": 3554,
      "host": 3555,
      "items": 3556,
      "Block": 3557,
      "Ġnight": 3558,
      "ĠPres": 3559,
      "ĠThen": 3560,
      "ATE": 3561,
      "Ġben": 3562,
      "ĠDem": 3563,
      "Ġsocial": 3564,
      "Ġrelationship": 3565,
      "itted": 3566,
      "medi": 3567,
      "yl": 3568,
      "aset": 3569,
      "mand": 3570,
      "Ġissue": 3571,
      "Ġcomment": 3572,
      "orch": 3573,
      "AM": 3574,
      "endif": 3575,
      "Ġfoot": 3576,
      "Ġtheory": 3577,
      "options": 3578,
      "App": 3579,
      "roller": 3580,
      "ĠJan": 3581,
      "uly": 3582,
      "ĠSet": 3583,
      "achine": 3584,
      "Ġindividual": 3585,
      "Rec": 3586,
      "Ġsepar": 3587,
      "Ġmode": 3588,
      "Ġfood": 3589,
      "arrow": 3590,
      "rowser": 3591,
      "Ġmot": 3592,
      "Frame": 3593,
      "################": 3594,
      "''": 3595,
      "Vector": 3596,
      "Ġsat": 3597,
      "Style": 3598,
      "Ġobt": 3599,
      "ĠWar": 3600,
      "Ġsaying": 3601,
      "ief": 3602,
      "GL": 3603,
      "media": 3604,
      "Be": 3605,
      "Ġmo": 3606,
      "160": 3607,
      "after": 3608,
      "tab": 3609,
      "----------------------------------------------------------------": 3610,
      "SSERT": 3611,
      "Exception": 3612,
      "Ġstatus": 3613,
      "typ": 3614,
      "Ġcustom": 3615,
      "istor": 3616,
      "Ġnecess": 3617,
      "ocket": 3618,
      "End": 3619,
      "FT": 3620,
      "elves": 3621,
      "ordin": 3622,
      "Par": 3623,
      "Create": 3624,
      "Ġ((": 3625,
      "ises": 3626,
      "89": 3627,
      "Ġcou": 3628,
      "Ġhost": 3629,
      "Ġinside": 3630,
      "Ġwritten": 3631,
      "ogn": 3632,
      "Ġaccept": 3633,
      "Ġmembers": 3634,
      "BR": 3635,
      "Ġmaterial": 3636,
      "ambd": 3637,
      "iles": 3638,
      "control": 3639,
      "isk": 3640,
      "sage": 3641,
      "ĊĠĠĠĠĊĠĠĠ": 3642,
      "Ġ})": 3643,
      "buffer": 3644,
      "server": 3645,
      "Manager": 3646,
      "Ġmonths": 3647,
      "sy": 3648,
      "pename": 3649,
      "``": 3650,
      "itude": 3651,
      "curity": 3652,
      "False": 3653,
      "reed": 3654,
      "year": 3655,
      "Ptr": 3656,
      "inst": 3657,
      "ĠAfter": 3658,
      "Ġlower": 3659,
      "ometry": 3660,
      "resh": 3661,
      "Ġge": 3662,
      "root": 3663,
      "Ġscreen": 3664,
      "ournal": 3665,
      "79": 3666,
      "like": 3667,
      "yd": 3668,
      "PRE": 3669,
      "Ġchanges": 3670,
      "Ġrights": 3671,
      "usion": 3672,
      "PA": 3673,
      "Read": 3674,
      "Ġexpress": 3675,
      "chan": 3676,
      "Ġexecut": 3677,
      "aves": 3678,
      "Source": 3679,
      "ĠRepublic": 3680,
      "ĠDec": 3681,
      "ORD": 3682,
      "Ġver": 3683,
      "Ġneeded": 3684,
      "ride": 3685,
      "evel": 3686,
      "apter": 3687,
      "Ġformer": 3688,
      "dist": 3689,
      "asing": 3690,
      "ffff": 3691,
      "(_": 3692,
      "offset": 3693,
      "styles": 3694,
      "Ġweight": 3695,
      "CON": 3696,
      "Ġmoment": 3697,
      "lin": 3698,
      "Ġbar": 3699,
      "Ġflow": 3700,
      "Ġcult": 3701,
      "abase": 3702,
      "attr": 3703,
      "Ġpolitical": 3704,
      "ster": 3705,
      "footer": 3706,
      "Ġeveryone": 3707,
      "false": 3708,
      "Ġrespect": 3709,
      "ĠWorld": 3710,
      "Ġbuy": 3711,
      "Ġprovide": 3712,
      "sec": 3713,
      "repon": 3714,
      "Ġshare": 3715,
      "ambda": 3716,
      "summary": 3717,
      "just": 3718,
      "reponame": 3719,
      "Ġintegr": 3720,
      "Ġsubject": 3721,
      "Ġadded": 3722,
      "Ġconnect": 3723,
      "Ġglobal": 3724,
      "grid": 3725,
      "Ġexc": 3726,
      "ĠTHE": 3727,
      "ĠChrist": 3728,
      "Ġcomes": 3729,
      "Method": 3730,
      "Ġstates": 3731,
      "buf": 3732,
      "Ġsignific": 3733,
      "google": 3734,
      "Ġrunning": 3735,
      "navbar": 3736,
      "lim": 3737,
      "drop": 3738,
      "Ġfight": 3739,
      "Ġinline": 3740,
      "ully": 3741,
      "ĠRuss": 3742,
      "ĠInst": 3743,
      "Property": 3744,
      "Ġtask": 3745,
      "Ġsomet": 3746,
      "ference": 3747,
      "ĠSp": 3748,
      "change": 3749,
      "Ġmer": 3750,
      "ries": 3751,
      "member": 3752,
      "ua": 3753,
      "Ġhigher": 3754,
      "Ġmilit": 3755,
      "Ġ[]": 3756,
      "emper": 3757,
      "hel": 3758,
      "adio": 3759,
      "Ġpresident": 3760,
      "Ġcho": 3761,
      "Su": 3762,
      "Ġquite": 3763,
      "Ġmeet": 3764,
      "Ġimpro": 3765,
      "property": 3766,
      "gorithm": 3767,
      "Ġelements": 3768,
      "Ġinfl": 3769,
      "---": 3770,
      "Ġbound": 3771,
      "blockList": 3772,
      "When": 3773,
      "Ġpotential": 3774,
      "âĢ¦": 3775,
      "ORT": 3776,
      "tributes": 3777,
      "ection": 3778,
      "ascript": 3779,
      "ula": 3780,
      "Ġamong": 3781,
      "Ġfocus": 3782,
      "structor": 3783,
      "VER": 3784,
      "Ġul": 3785,
      "Ġmedia": 3786,
      "MO": 3787,
      "=\"../../../../": 3788,
      "41": 3789,
      "Ġwin": 3790,
      "ĊĠĠĠĠĠĠĠĠĠĠĠĠĠĠĠĠĠĠĠĠĠĠĠĠĠĠĠĠĠĠĠĠĠĠĠĠĠĠĠĠ": 3791,
      "Status": 3792,
      "Ġterm": 3793,
      "ĠWith": 3794,
      "Ġwait": 3795,
      "Gr": 3796,
      "ĠPol": 3797,
      "break": 3798,
      "option": 3799,
      "Ġfam": 3800,
      "amera": 3801,
      "Ġ22": 3802,
      "Ġmodels": 3803,
      "Check": 3804,
      "Ġla": 3805,
      "ĠBen": 3806,
      "Ġcity": 3807,
      "////////////////////////////////": 3808,
      "token": 3809,
      "Ġtrad": 3810,
      "()->": 3811,
      "aries": 3812,
      "desc": 3813,
      "Ġaccording": 3814,
      "sign": 3815,
      "Ġground": 3816,
      "CL": 3817,
      "scale": 3818,
      "åĪ": 3819,
      "Ġmodule": 3820,
      "Ġnamespace": 3821,
      "ney": 3822,
      "43": 3823,
      "Mode": 3824,
      "Ġoffer": 3825,
      "]]": 3826,
      "uk": 3827,
      "ĠCent": 3828,
      "leted": 3829,
      "alle": 3830,
      "apping": 3831,
      "Ġhowever": 3832,
      "pose": 3833,
      "Stream": 3834,
      "Service": 3835,
      "docs": 3836,
      "ĠMc": 3837,
      "soft": 3838,
      "np": 3839,
      "Ġlines": 3840,
      "Ġshows": 3841,
      "VE": 3842,
      "()</": 3843,
      "Ġden": 3844,
      "æľ": 3845,
      "\"],": 3846,
      "Ġrele": 3847,
      "repeat": 3848,
      "Ġvot": 3849,
      "Ġneeds": 3850,
      "cle": 3851,
      "ana": 3852,
      "Ġattempt": 3853,
      "Ġtypes": 3854,
      "Ġ21": 3855,
      "Ġ255": 3856,
      "Ġequation": 3857,
      "ypes": 3858,
      "more": 3859,
      "atural": 3860,
      "rest": 3861,
      "Ġ$$\\": 3862,
      "pop": 3863,
      "Ġtree": 3864,
      "Ġwriting": 3865,
      "Ġspan": 3866,
      "kw": 3867,
      "svg": 3868,
      "Ġestab": 3869,
      "Ġsystems": 3870,
      "eed": 3871,
      "').": 3872,
      "Ġ32": 3873,
      "shared": 3874,
      "Ġquestions": 3875,
      "icles": 3876,
      "ring": 3877,
      "DB": 3878,
      "minist": 3879,
      "'],": 3880,
      "ilities": 3881,
      "Ġmultiple": 3882,
      "Ġofficial": 3883,
      "Off": 3884,
      "(*": 3885,
      "Ġquant": 3886,
      "Start": 3887,
      "52": 3888,
      "ĠQu": 3889,
      "How": 3890,
      "Ċĉĉĉĉĉĉ": 3891,
      "Ġ60": 3892,
      "msg": 3893,
      "RI": 3894,
      "Ġfurther": 3895,
      "parse": 3896,
      "unt": 3897,
      "čĊĠĠĠĠĠ": 3898,
      "ĠHis": 3899,
      "Ġnullptr": 3900,
      "bum": 3901,
      ".<": 3902,
      "Ġthread": 3903,
      "Bar": 3904,
      "Ġsometimes": 3905,
      "Ġfilm": 3906,
      "ĊĠĠĠĠĠĠĠĠĠĠ": 3907,
      "ĠPart": 3908,
      "Ġ:=": 3909,
      "ĠIS": 3910,
      "ills": 3911,
      "Ġengine": 3912,
      "ological": 3913,
      "91": 3914,
      "ĠFalse": 3915,
      "Ġoption": 3916,
      "ĠFl": 3917,
      "Ġfilter": 3918,
      "oken": 3919,
      "ãĢĤ": 3920,
      "onal": 3921,
      "ighb": 3922,
      "Ġprovided": 3923,
      "tmp": 3924,
      "files": 3925,
      "Ġroot": 3926,
      "tries": 3927,
      "focus": 3928,
      "Ġtaken": 3929,
      "lem": 3930,
      "abor": 3931,
      "63": 3932,
      "Ġball": 3933,
      "ĠAmerica": 3934,
      "ients": 3935,
      "mal": 3936,
      "Ġâ": 3937,
      "ĠWest": 3938,
      "cr": 3939,
      "stract": 3940,
      "actions": 3941,
      "Ġgroups": 3942,
      "oding": 3943,
      "ĠTest": 3944,
      "ĠGerman": 3945,
      ")$": 3946,
      "Ġstructure": 3947,
      "Ġyoung": 3948,
      "Content": 3949,
      "HECK": 3950,
      "oe": 3951,
      "cm": 3952,
      "avor": 3953,
      "served": 3954,
      "Ð½": 3955,
      "roy": 3956,
      "Ġpredict": 3957,
      "Ġdig": 3958,
      "53": 3959,
      "ites": 3960,
      "blank": 3961,
      "ĠNov": 3962,
      "parent": 3963,
      "Row": 3964,
      "close": 3965,
      "ĠSome": 3966,
      "Ġweb": 3967,
      "sig": 3968,
      "ensions": 3969,
      "ĠMe": 3970,
      "irm": 3971,
      "ĠNow": 3972,
      "Ġtmp": 3973,
      "Ġwatch": 3974,
      "lege": 3975,
      "Ġserver": 3976,
      "PS": 3977,
      "uest": 3978,
      "Ġeasy": 3979,
      "Ġclos": 3980,
      "zz": 3981,
      "=\\": 3982,
      "anger": 3983,
      "Ġbuffer": 3984,
      "Ġfive": 3985,
      "Ġviol": 3986,
      "Ġmemory": 3987,
      "leep": 3988,
      "Ġhidden": 3989,
      "ĠNational": 3990,
      "lier": 3991,
      "Ġapplic": 3992,
      "rote": 3993,
      "Ġep": 3994,
      "itting": 3995,
      "References": 3996,
      "Max": 3997,
      "Ġpointer": 3998,
      "Ġbegan": 3999,
      "local": 4000,
      "Gener": 4001,
      "values": 4002,
      "ĠDr": 4003,
      "Ġsound": 4004,
      "Ġlim": 4005,
      "TEST": 4006,
      "ugin": 4007,
      "Ġcy": 4008,
      "avel": 4009,
      "icens": 4010,
      "BU": 4011,
      "62": 4012,
      "Ġdeg": 4013,
      "iven": 4014,
      "ĠMath": 4015,
      "Ġslow": 4016,
      "PRO": 4017,
      "tocol": 4018,
      "Ġfeature": 4019,
      "Char": 4020,
      "Ġraise": 4021,
      "AC": 4022,
      "ada": 4023,
      "Ġtried": 4024,
      "Ġwasn": 4025,
      "ably": 4026,
      "Ġtaking": 4027,
      "ponse": 4028,
      "ĠSee": 4029,
      "rial": 4030,
      "BC": 4031,
      "My": 4032,
      "Ġcases": 4033,
      "TO": 4034,
      "Ġexperience": 4035,
      "Ġsample": 4036,
      "istics": 4037,
      "MS": 4038,
      "Graph": 4039,
      "ouch": 4040,
      "Ed": 4041,
      "Ġemploy": 4042,
      "adata": 4043,
      "ZE": 4044,
      "äº": 4045,
      "Ġupdate": 4046,
      "Ġconstant": 4047,
      "ĠPar": 4048,
      "ĠÃ": 4049,
      "pth": 4050,
      "ernel": 4051,
      "Ġalt": 4052,
      "illi": 4053,
      "reet": 4054,
      "ih": 4055,
      "export": 4056,
      "Module": 4057,
      "pass": 4058,
      "agement": 4059,
      "small": 4060,
      "Ġloss": 4061,
      "ĠRed": 4062,
      "Ġbehind": 4063,
      "73": 4064,
      "83": 4065,
      "ĠMin": 4066,
      "Ġhor": 4067,
      "ping": 4068,
      "Ġdate": 4069,
      "Run": 4070,
      "window": 4071,
      "ĠJust": 4072,
      "Ġ/**": 4073,
      "Ġanalysis": 4074,
      "inally": 4075,
      "Ġir": 4076,
      "clear": 4077,
      "Ġconditions": 4078,
      "Ġanyone": 4079,
      "ĠNorth": 4080,
      "ls": 4081,
      "ĠPresident": 4082,
      "utes": 4083,
      "=\"../../../": 4084,
      "Ġdevice": 4085,
      "Ġfront": 4086,
      "Ġstream": 4087,
      "ĠHouse": 4088,
      "Ġknew": 4089,
      "atio": 4090,
      "ĠGu": 4091,
      "Ġcross": 4092,
      "Ġparameters": 4093,
      "Ġlonger": 4094,
      "Ġspeed": 4095,
      "TT": 4096,
      "Ġcompan": 4097,
      "Ġzero": 4098,
      "anced": 4099,
      "51": 4100,
      "âĪĴ": 4101,
      "Ġenvironment": 4102,
      "61": 4103,
      "Ġign": 4104,
      "DF": 4105,
      "totype": 4106,
      "'.": 4107,
      "Hel": 4108,
      "Ġtakes": 4109,
      "Pol": 4110,
      "Ġsignificant": 4111,
      "Ġassum": 4112,
      "ĠState": 4113,
      "lying": 4114,
      "Ġiter": 4115,
      "ĠIntern": 4116,
      "Ġselect": 4117,
      "Init": 4118,
      "Ġnews": 4119,
      "range": 4120,
      "equal": 4121,
      "ales": 4122,
      "Ġmethods": 4123,
      "Ġ>=": 4124,
      "ENT": 4125,
      "prec": 4126,
      "Ġbehav": 4127,
      "Ġdifference": 4128,
      "ceed": 4129,
      "ipedia": 4130,
      "make": 4131,
      "fort": 4132,
      "ords": 4133,
      "KEY": 4134,
      "Ġtemp": 4135,
      "iding": 4136,
      "aign": 4137,
      "Ġ23": 4138,
      "ÑĢ": 4139,
      "Ġrespons": 4140,
      "Ġpain": 4141,
      "Client": 4142,
      "}$$": 4143,
      "env": 4144,
      "normal": 4145,
      "Ġfrequ": 4146,
      "Right": 4147,
      "Ġflo": 4148,
      "ĠTom": 4149,
      "mode": 4150,
      "ague": 4151,
      "enn": 4152,
      "rows": 4153,
      "Ġdecided": 4154,
      "Ġdistribution": 4155,
      "xx": 4156,
      "ij": 4157,
      "Ġboy": 4158,
      ";&#": 4159,
      ",</": 4160,
      "Ġaverage": 4161,
      "ĠSystem": 4162,
      "Ġparameter": 4163,
      "Ġfill": 4164,
      "ĠOct": 4165,
      "func": 4166,
      "Ġimm": 4167,
      ".__": 4168,
      "can": 4169,
      "oute": 4170,
      "cs": 4171,
      "Ġequal": 4172,
      "keyword": 4173,
      "See": 4174,
      "Ġcompet": 4175,
      "aker": 4176,
      "Doc": 4177,
      "uple": 4178,
      "ĠDemocr": 4179,
      "article": 4180,
      "BA": 4181,
      "Instance": 4182,
      "Ġve": 4183,
      "Ġexactly": 4184,
      "iting": 4185,
      "NE": 4186,
      "plot": 4187,
      "Ġapplication": 4188,
      "Ġfire": 4189,
      "aul": 4190,
      "ili": 4191,
      "Ġfeatures": 4192,
      "Ġsong": 4193,
      "connect": 4194,
      "Page": 4195,
      "71": 4196,
      "ĠAug": 4197,
      "Default": 4198,
      "Ġseason": 4199,
      "Ġuses": 4200,
      "ociety": 4201,
      "ledge": 4202,
      "ĠLet": 4203,
      "sup": 4204,
      "TYPE": 4205,
      "cos": 4206,
      "olve": 4207,
      "FO": 4208,
      "Ġnames": 4209,
      "idge": 4210,
      "mt": 4211,
      "Ġremember": 4212,
      "ABLE": 4213,
      "Ġwrote": 4214,
      "Ġ~": 4215,
      "pecially": 4216,
      "uel": 4217,
      "Ġhours": 4218,
      "split": 4219,
      "Topic": 4220,
      "Ġbuilt": 4221,
      "types": 4222,
      "Build": 4223,
      "uster": 4224,
      "Ġappear": 4225,
      "Ġrender": 4226,
      "Ġusually": 4227,
      "Act": 4228,
      "Ġpolicy": 4229,
      "ashing": 4230,
      "apache": 4231,
      "ĠCo": 4232,
      "Query": 4233,
      "wrapper": 4234,
      "ĠDis": 4235,
      "Ġstuff": 4236,
      "Ġ<=": 4237,
      "rect": 4238,
      "Ġpopulation": 4239,
      "Ġthird": 4240,
      "javascript": 4241,
      "ony": 4242,
      "ĊĠĠĠĠĠĠĠĠĠĠĠĠĠĠĠĠĠĠĠĠĠĠĠĠĠĠĠĠĠĠĠĠĠĠĠĠĠĠĠĠĠĠĠĠĠĠĠĠ": 4243,
      "irector": 4244,
      "ilos": 4245,
      "Ġtreat": 4246,
      "Ġdifficult": 4247,
      "Ġ2006": 4248,
      "81": 4249,
      "ĠSouth": 4250,
      "Ġindu": 4251,
      "ĠDef": 4252,
      "eople": 4253,
      "VI": 4254,
      "Ġevents": 4255,
      "Ġsix": 4256,
      "Ġissues": 4257,
      "bg": 4258,
      "Ġscient": 4259,
      "SU": 4260,
      "dev": 4261,
      "area": 4262,
      "ĠSim": 4263,
      "cpp": 4264,
      "ds": 4265,
      "Ġdam": 4266,
      "tim": 4267,
      "andid": 4268,
      "ecause": 4269,
      "ĠĠĠĠĠĠĠĠĠĠ": 4270,
      "rupt": 4271,
      "čĊĉĉĉĉ": 4272,
      "fect": 4273,
      "rl": 4274,
      "Ġways": 4275,
      "Format": 4276,
      "mselves": 4277,
      "Ġmilitary": 4278,
      "pat": 4279,
      "Ut": 4280,
      "ALL": 4281,
      "Ġreference": 4282,
      "\").": 4283,
      "airs": 4284,
      "Ġdistance": 4285,
      "deg": 4286,
      "ĠApr": 4287,
      "Ġapproach": 4288,
      "çĶ": 4289,
      "Nav": 4290,
      "ĠEd": 4291,
      "Ġmember": 4292,
      "Ġobjects": 4293,
      "alpha": 4294,
      "VAL": 4295,
      "Ġgave": 4296,
      "Ġthemselves": 4297,
      "Pre": 4298,
      "umer": 4299,
      "Ġcommunity": 4300,
      "Ġclient": 4301,
      "acc": 4302,
      "Date": 4303,
      "Ġplayed": 4304,
      "proto": 4305,
      "âĢľ": 4306,
      "gebr": 4307,
      "Open": 4308,
      "ria": 4309,
      "They": 4310,
      "âĢī": 4311,
      "ĠCLASS": 4312,
      "urch": 4313,
      "Ġvarious": 4314,
      "Ġhandle": 4315,
      "hip": 4316,
      "Ġsave": 4317,
      "white": 4318,
      "Ġgrad": 4319,
      "ederal": 4320,
      "icrosoft": 4321,
      "Ġphot": 4322,
      "Ġdevelopment": 4323,
      "uge": 4324,
      "!!": 4325,
      "flex": 4326,
      "ese": 4327,
      "377": 4328,
      "Ġintrodu": 4329,
      "Ġfast": 4330,
      "Ġplaying": 4331,
      "ung": 4332,
      "Ġbuilding": 4333,
      "gment": 4334,
      "ĠTO": 4335,
      "witter": 4336,
      "Ġcompanies": 4337,
      "Ġstatement": 4338,
      "å®": 4339,
      "irth": 4340,
      "apan": 4341,
      "Ġheard": 4342,
      "ered": 4343,
      "Left": 4344,
      "ĠCor": 4345,
      "Ð¾Ð": 4346,
      "Ġtransition": 4347,
      "Ġ2008": 4348,
      "Ñģ": 4349,
      "Ġprivate": 4350,
      "ĊĠĠĠĠĠĠĠĠĠĠĠĠĠĠĠĠĠĠĠĠĠĠĠĠĠĠĠĠĠĠĠĠĠĠĠ": 4351,
      "*)": 4352,
      "ellow": 4353,
      "irtual": 4354,
      "known": 4355,
      "Ġsn": 4356,
      "Ġevidence": 4357,
      "${": 4358,
      "PO": 4359,
      "Ġsche": 4360,
      "Ġactual": 4361,
      "HO": 4362,
      "Var": 4363,
      "cing": 4364,
      "Ġvia": 4365,
      "Ġkill": 4366,
      "ivil": 4367,
      "matrix": 4368,
      "Ġcomputer": 4369,
      "Device": 4370,
      "ĠData": 4371,
      "ĠIr": 4372,
      "posed": 4373,
      "Ġunit": 4374,
      "ĠCopyright": 4375,
      "Em": 4376,
      "uit": 4377,
      "åħ": 4378,
      "linear": 4379,
      "null": 4380,
      "hematic": 4381,
      "Ġstudents": 4382,
      "mask": 4383,
      "Width": 4384,
      "aging": 4385,
      "Ġsoon": 4386,
      "Ġrep": 4387,
      "Ġhom": 4388,
      "wiki": 4389,
      "IM": 4390,
      "lation": 4391,
      "Ġ['": 4392,
      "Ġgets": 4393,
      "task": 4394,
      "PU": 4395,
      "Ġeyes": 4396,
      "Ġincluded": 4397,
      "Ġdefinition": 4398,
      "0101": 4399,
      "Ġvariables": 4400,
      "elling": 4401,
      "Ġ2010": 4402,
      "Ġmess": 4403,
      "Ġmis": 4404,
      "arily": 4405,
      "ores": 4406,
      "Ġimg": 4407,
      "Script": 4408,
      "Response": 4409,
      "Ġlost": 4410,
      "Ġgames": 4411,
      "ĠOpt": 4412,
      "hidden": 4413,
      ">;": 4414,
      "ĠBritish": 4415,
      "Ġ28": 4416,
      "\"\"\"": 4417,
      "Ġbecom": 4418,
      "Ġparty": 4419,
      "Ġfixed": 4420,
      "Ġhel": 4421,
      "Ġheld": 4422,
      "Ġconcept": 4423,
      "Ġhimself": 4424,
      "ĠCON": 4425,
      "$,": 4426,
      "illed": 4427,
      "Ġcontains": 4428,
      "render": 4429,
      "ĠReturn": 4430,
      "remove": 4431,
      "big": 4432,
      "Ġmult": 4433,
      "Ġage": 4434,
      "Ġpict": 4435,
      "=</": 4436,
      "ĠĠĠĠĠĠĠĠĠ": 4437,
      "Ġusers": 4438,
      "Ġproperties": 4439,
      "]:": 4440,
      "eff": 4441,
      "Ġobj": 4442,
      "spond": 4443,
      "Ġreleased": 4444,
      "Ġstay": 4445,
      "Ã¡": 4446,
      "Ġconsidered": 4447,
      "aven": 4448,
      "oms": 4449,
      "Ġmention": 4450,
      "Ġtranslate": 4451,
      "click": 4452,
      "Ġ&#": 4453,
      "oder": 4454,
      "cret": 4455,
      "Ġsecurity": 4456,
      "Ġtemper": 4457,
      "Ġ2016": 4458,
      "Ġhit": 4459,
      "Ġscript": 4460,
      "ĊĠĠĠĠĠĠĠĠĠĠĠĠĠĠĠĠĠĠĠĠĠ": 4461,
      "ĠID": 4462,
      "Py": 4463,
      "ERROR": 4464,
      "long": 4465,
      "Ġsurface": 4466,
      "Ġgoes": 4467,
      "ensive": 4468,
      "roid": 4469,
      "Ġcorrespond": 4470,
      "åĲ": 4471,
      "Ġregion": 4472,
      "pret": 4473,
      "oggle": 4474,
      "ĠAPI": 4475,
      "ba": 4476,
      "apped": 4477,
      "tree": 4478,
      "expect": 4479,
      "Child": 4480,
      "istry": 4481,
      "Ġautom": 4482,
      "pc": 4483,
      "ĠEar": 4484,
      "Ġnote": 4485,
      "ĠÎ": 4486,
      "empty": 4487,
      "Ġtim": 4488,
      "rown": 4489,
      "nn": 4490,
      "models": 4491,
      "Ġpattern": 4492,
      "project": 4493,
      "Ġcomplete": 4494,
      "Ġworth": 4495,
      "Render": 4496,
      "highlight": 4497,
      "ga": 4498,
      "oman": 4499,
      "Ġarch": 4500,
      "Ġsil": 4501,
      "uses": 4502,
      "Ġmiddle": 4503,
      "ä½": 4504,
      "Ġwebs": 4505,
      "ĠGoogle": 4506,
      "Ġteach": 4507,
      "xf": 4508,
      "ounter": 4509,
      "Filter": 4510,
      "Ġinteresting": 4511,
      "Ġconv": 4512,
      "ULT": 4513,
      "Ġgre": 4514,
      "inite": 4515,
      "Ġrules": 4516,
      "izes": 4517,
      "mathrm": 4518,
      "etime": 4519,
      "oring": 4520,
      "pare": 4521,
      "Ġespecially": 4522,
      "sequ": 4523,
      "Ġspl": 4524,
      "Ġnational": 4525,
      "ĠSen": 4526,
      "MC": 4527,
      "Length": 4528,
      "ynamic": 4529,
      "Ġoverride": 4530,
      "CTION": 4531,
      "ĠNe": 4532,
      "sqrt": 4533,
      "rief": 4534,
      "Ġfigure": 4535,
      "response": 4536,
      "see": 4537,
      "Ġones": 4538,
      "Ġcampaign": 4539,
      "ĠNO": 4540,
      "Mem": 4541,
      "thern": 4542,
      "API": 4543,
      "Ġ2009": 4544,
      "inline": 4545,
      "Component": 4546,
      "Ġplayer": 4547,
      "inger": 4548,
      "Ġscience": 4549,
      "rict": 4550,
      "author": 4551,
      "Fact": 4552,
      "Options": 4553,
      "Ġactiv": 4554,
      "\">(</": 4555,
      "]</": 4556,
      "Ass": 4557,
      "ensity": 4558,
      "Ġbenef": 4559,
      "Ġrelated": 4560,
      "COL": 4561,
      "Ġremov": 4562,
      "che": 4563,
      "Ġopacity": 4564,
      "plicit": 4565,
      "Ġeffort": 4566,
      "Ġsy": 4567,
      "Ġ('": 4568,
      "ĠAct": 4569,
      "Ġcouldn": 4570,
      "attle": 4571,
      "based": 4572,
      "Ġpul": 4573,
      ">::": 4574,
      "Ġpositive": 4575,
      "ĠSch": 4576,
      "Ġwoman": 4577,
      "ography": 4578,
      "Ġtransparent": 4579,
      "Ġleave": 4580,
      "Ġavoid": 4581,
      "Ġeduc": 4582,
      "Ġindepend": 4583,
      "Ġexpand": 4584,
      "Aut": 4585,
      "haps": 4586,
      "hs": 4587,
      "Te": 4588,
      "gradient": 4589,
      "Ġguy": 4590,
      "uous": 4591,
      "iet": 4592,
      "Output": 4593,
      "mar": 4594,
      "Handler": 4595,
      ";/": 4596,
      "Ġclean": 4597,
      "Ġdetails": 4598,
      "Ġreading": 4599,
      "rate": 4600,
      "SA": 4601,
      "ĊĊĠĠĠĠĠĠĠĠĠĠĠĠĠĠĠ": 4602,
      "cat": 4603,
      "ĠDep": 4604,
      "Ġdetermin": 4605,
      "patch": 4606,
      "fs": 4607,
      "ĠGod": 4608,
      "________________": 4609,
      "deleted": 4610,
      "ART": 4611,
      "Ġill": 4612,
      "Ġprice": 4613,
      "INE": 4614,
      "eger": 4615,
      "Ġcompletely": 4616,
      "Ġperformance": 4617,
      "thread": 4618,
      "entry": 4619,
      "iece": 4620,
      "Ġinfo": 4621,
      "ino": 4622,
      "Ġpolice": 4623,
      "copy": 4624,
      "Update": 4625,
      "atives": 4626,
      "ND": 4627,
      "Ġspecified": 4628,
      "Select": 4629,
      "Ġshape": 4630,
      "ĠList": 4631,
      "panel": 4632,
      "mine": 4633,
      "Can": 4634,
      "address": 4635,
      "Ġworked": 4636,
      "Ġawait": 4637,
      "jpg": 4638,
      "ialize": 4639,
      "igger": 4640,
      "Ġprot": 4641,
      "Ġsend": 4642,
      "Ġreported": 4643,
      "Ġfuck": 4644,
      "Ġcoming": 4645,
      "hl": 4646,
      "Matrix": 4647,
      "ĠBo": 4648,
      "bi": 4649,
      "disabled": 4650,
      "Ġchanged": 4651,
      "Sim": 4652,
      "Ġshown": 4653,
      "Ġuseful": 4654,
      "Ġconvert": 4655,
      "ĠSw": 4656,
      "ĠEnglish": 4657,
      "Ġeval": 4658,
      "Ġ2007": 4659,
      "Parameters": 4660,
      "128": 4661,
      "Do": 4662,
      "ilosoph": 4663,
      "mut": 4664,
      "decor": 4665,
      "ustral": 4666,
      "tbody": 4667,
      "ĠTrans": 4668,
      "Ġwouldn": 4669,
      "Ġquery": 4670,
      "Ċĉĉĉĉĉĉĉĉ": 4671,
      "draw": 4672,
      "Ġlooks": 4673,
      "mi": 4674,
      "Ġprec": 4675,
      "Ġoffset": 4676,
      "Ġhttps": 4677,
      "Ġ(\"": 4678,
      "ĠEm": 4679,
      "Ġplayers": 4680,
      "etch": 4681,
      "Ġdistributed": 4682,
      "Ġdrug": 4683,
      "ca": 4684,
      "Ġcause": 4685,
      "Ġrelig": 4686,
      "stant": 4687,
      "ĠĠĊ": 4688,
      "gn": 4689,
      "osp": 4690,
      "Ġparts": 4691,
      "Ġcouple": 4692,
      "urb": 4693,
      "Ġcomb": 4694,
      "Ġinterface": 4695,
      "Ġreturns": 4696,
      "Ġonline": 4697,
      "Ġregular": 4698,
      "orig": 4699,
      "vie": 4700,
      "Ġč": 4701,
      "Ġ26": 4702,
      "orry": 4703,
      "Ġpark": 4704,
      "Ġ64": 4705,
      "Ġsem": 4706,
      "equ": 4707,
      "Ġserious": 4708,
      "artment": 4709,
      "Ġdirectly": 4710,
      "ĠMarch": 4711,
      "Ġgrid": 4712,
      "Ġaren": 4713,
      "Ġpopular": 4714,
      "queue": 4715,
      "Ġentry": 4716,
      "Ġrisk": 4717,
      "Ġfair": 4718,
      "Ġcard": 4719,
      "ĠInter": 4720,
      "bas": 4721,
      "Back": 4722,
      "Ġminutes": 4723,
      "Ġwond": 4724,
      "SON": 4725,
      "pri": 4726,
      "ĊĉĠ": 4727,
      "Over": 4728,
      "Rem": 4729,
      "ĠChina": 4730,
      "Ġbasic": 4731,
      "Ġarguments": 4732,
      "æĸ": 4733,
      "Ġran": 4734,
      "Ġdirection": 4735,
      "Ġalbum": 4736,
      "ĠAut": 4737,
      "Ġpublished": 4738,
      "Ġrule": 4739,
      "ĠÂł": 4740,
      "Ġbring": 4741,
      "Ġcapt": 4742,
      "urt": 4743,
      "Ġsold": 4744,
      "acters": 4745,
      "ixel": 4746,
      "Ġswitch": 4747,
      "obile": 4748,
      "Ġtemplate": 4749,
      "Ġconcern": 4750,
      "à®¨": 4751,
      "Ġgives": 4752,
      "ication": 4753,
      "Ġparams": 4754,
      "Ġallowed": 4755,
      "Ġdeep": 4756,
      "Ġforward": 4757,
      "Ġnice": 4758,
      "ĠDE": 4759,
      "ponents": 4760,
      "stylesheet": 4761,
      "Ġess": 4762,
      "Header": 4763,
      "lg": 4764,
      "$\\": 4765,
      "erc": 4766,
      "example": 4767,
      "Vert": 4768,
      "anged": 4769,
      "which": 4770,
      "RAN": 4771,
      "Ġboost": 4772,
      "rot": 4773,
      "ĠString": 4774,
      "PC": 4775,
      "encies": 4776,
      "ĠAm": 4777,
      "del": 4778,
      "Ġprior": 4779,
      "Ġoil": 4780,
      "Ġadminist": 4781,
      "rip": 4782,
      "Ġreceived": 4783,
      "ĠDav": 4784,
      "3333": 4785,
      "olutions": 4786,
      "Now": 4787,
      "Ġgas": 4788,
      "ĠCount": 4789,
      "Ġcountries": 4790,
      "Ġreview": 4791,
      "Ġband": 4792,
      "Control": 4793,
      "Ġbank": 4794,
      "Position": 4795,
      "asons": 4796,
      "ĠBar": 4797,
      "htm": 4798,
      "win": 4799,
      "ptember": 4800,
      "ancial": 4801,
      "Ġyourself": 4802,
      "Ġrelease": 4803,
      "ĠJune": 4804,
      "Ġoverflow": 4805,
      "Ġnatural": 4806,
      "Ġincrease": 4807,
      "_;": 4808,
      "Ġdog": 4809,
      "ha": 4810,
      "Ġliving": 4811,
      "iny": 4812,
      "Ġrepl": 4813,
      "Ġpassed": 4814,
      "Pos": 4815,
      "Ġpersonal": 4816,
      "Ġproduction": 4817,
      "ĠJapan": 4818,
      "Ġhope": 4819,
      "Acc": 4820,
      ")\\": 4821,
      "Ġcurrently": 4822,
      "sche": 4823,
      "boost": 4824,
      "Ġloved": 4825,
      "php": 4826,
      "TA": 4827,
      "Ġicon": 4828,
      "Min": 4829,
      "ĠEvery": 4830,
      "Ġoperator": 4831,
      "Ġimag": 4832,
      "256": 4833,
      "Ġtalking": 4834,
      "Ġwhose": 4835,
      "Ġ80": 4836,
      "ĠFrom": 4837,
      "Ġsymbol": 4838,
      "Ġfields": 4839,
      "Ġextra": 4840,
      "aly": 4841,
      "Process": 4842,
      "Ġ^": 4843,
      "Ġ2017": 4844,
      "stat": 4845,
      "¿½": 4846,
      "ãģ®": 4847,
      "Ġcursor": 4848,
      "Ġinc": 4849,
      "rs": 4850,
      "Ġdelete": 4851,
      "anel": 4852,
      "iform": 4853,
      "Ġextrem": 4854,
      "Ġfac": 4855,
      "ĠVal": 4856,
      "gu": 4857,
      "txt": 4858,
      "OD": 4859,
      "ams": 4860,
      "ibly": 4861,
      "train": 4862,
      "Oper": 4863,
      "Ġquickly": 4864,
      "la": 4865,
      "Ġcontribut": 4866,
      "Ġinstall": 4867,
      "oom": 4868,
      "OK": 4869,
      "require": 4870,
      "Load": 4871,
      "Ġdoll": 4872,
      "fill": 4873,
      "External": 4874,
      "Ext": 4875,
      "utf": 4876,
      "astic": 4877,
      "Container": 4878,
      "Ġhappened": 4879,
      "Next": 4880,
      "Ġdead": 4881,
      ")))": 4882,
      "_,": 4883,
      "system": 4884,
      "Ġsurpr": 4885,
      "ĠAlso": 4886,
      "Ġmaybe": 4887,
      "Ġregard": 4888,
      "internal": 4889,
      "ĠSchool": 4890,
      "Ġfix": 4891,
      "Action": 4892,
      "ico": 4893,
      "apse": 4894,
      "Ġturned": 4895,
      "Ġassociated": 4896,
      "ĠHer": 4897,
      "Ġperfect": 4898,
      "istance": 4899,
      "ĠCO": 4900,
      "vas": 4901,
      "Ġempty": 4902,
      "Ġsituation": 4903,
      "SH": 4904,
      "ITY": 4905,
      "ĠHere": 4906,
      "scope": 4907,
      "čĊĠĠ": 4908,
      "ĠCong": 4909,
      "Bl": 4910,
      "Ġtra": 4911,
      "prototype": 4912,
      "ils": 4913,
      "iqu": 4914,
      "omb": 4915,
      "ĠRec": 4916,
      "Ġelif": 4917,
      "Ġsequence": 4918,
      "Spec": 4919,
      "Ġintern": 4920,
      "Ġrock": 4921,
      "Ġimmedi": 4922,
      "Ġhop": 4923,
      "Ġcomponent": 4924,
      "Ġannoun": 4925,
      "Handle": 4926,
      "raq": 4927,
      "Ġmeaning": 4928,
      "FFFF": 4929,
      "circ": 4930,
      "times": 4931,
      "Ġdark": 4932,
      "Ġremove": 4933,
      "xml": 4934,
      "Ġ${": 4935,
      "Ġmechan": 4936,
      "Address": 4937,
      "Ġfavor": 4938,
      "send": 4939,
      "ĠOpen": 4940,
      "EM": 4941,
      "Ġdomain": 4942,
      "ĠSec": 4943,
      "Ġanim": 4944,
      "Command": 4945,
      "Ġsizeof": 4946,
      "efined": 4947,
      "Ġguess": 4948,
      "igen": 4949,
      "500": 4950,
      "aled": 4951,
      "het": 4952,
      "odd": 4953,
      "stry": 4954,
      "Ġlocation": 4955,
      "Ġsquare": 4956,
      "UM": 4957,
      "unsigned": 4958,
      "ĠType": 4959,
      "rench": 4960,
      "ï¿½": 4961,
      "Ġheader": 4962,
      "Ġbirth": 4963,
      "common": 4964,
      "Ġdescribed": 4965,
      "aur": 4966,
      "Ġemail": 4967,
      "command": 4968,
      "Rect": 4969,
      "loss": 4970,
      "fn": 4971,
      "decoration": 4972,
      "Ġ],": 4973,
      "Ġconsist": 4974,
      "Ġrecogn": 4975,
      "ĠTH": 4976,
      "Types": 4977,
      "zer": 4978,
      "ĠPost": 4979,
      "Ġ2015": 4980,
      "Ġmenu": 4981,
      "Ġ2018": 4982,
      "Ge": 4983,
      "ĠFirst": 4984,
      "å¤": 4985,
      "Ġaddition": 4986,
      "Ġtag": 4987,
      "ulate": 4988,
      "Ġste": 4989,
      "hat": 4990,
      "ellig": 4991,
      "Normal": 4992,
      "joy": 4993,
      "Ġreturned": 4994,
      "writ": 4995,
      "lood": 4996,
      "XX": 4997,
      "à®£": 4998,
      "Ġcatch": 4999,
      "weet": 5000,
      "RC": 5001,
      "Ġfactor": 5002,
      "ners": 5003,
      "ATION": 5004,
      "pag": 5005,
      "Ġbold": 5006,
      "Ent": 5007,
      "Match": 5008,
      "Ġadditional": 5009,
      "Ġthinking": 5010,
      "ĠClass": 5011,
      "_->": 5012,
      "bind": 5013,
      "1000": 5014,
      "Ġtown": 5015,
      "Ab": 5016,
      "[]": 5017,
      "pload": 5018,
      "ĠRE": 5019,
      "ĠIsl": 5020,
      "Ġbytes": 5021,
      "eah": 5022,
      "à¯ĩ": 5023,
      "Ġjava": 5024,
      "\">,</": 5025,
      "iverse": 5026,
      "atever": 5027,
      "Ġalgorithm": 5028,
      "conf": 5029,
      "Ġcentury": 5030,
      "Ġdecision": 5031,
      "ĠANY": 5032,
      "Thread": 5033,
      "Ġoffice": 5034,
      "ara": 5035,
      "Ġhon": 5036,
      "ĊĊĉĉ": 5037,
      "SD": 5038,
      "Cal": 5039,
      "Ġ2005": 5040,
      "ios": 5041,
      "Tim": 5042,
      "points": 5043,
      "Ġdescription": 5044,
      "ĠAustral": 5045,
      "Ġmachine": 5046,
      "]),": 5047,
      ";\">": 5048,
      "Ġease": 5049,
      "Ġjud": 5050,
      "atory": 5051,
      "Ġproducts": 5052,
      "Ġhot": 5053,
      "Ġcat": 5054,
      "Ġestim": 5055,
      "Ġsuccessful": 5056,
      "Ġobvious": 5057,
      "Ġsym": 5058,
      "Ġinher": 5059,
      "Post": 5060,
      "Ġfailed": 5061,
      "Ġinflu": 5062,
      "hib": 5063,
      "Ġoptim": 5064,
      "}^{": 5065,
      "IO": 5066,
      "loc": 5067,
      "Pack": 5068,
      "only": 5069,
      "ĠMark": 5070,
      "MENT": 5071,
      "ĠApril": 5072,
      "Let": 5073,
      "blue": 5074,
      "ĠIraq": 5075,
      "Ġfem": 5076,
      "fd": 5077,
      "ĠJuly": 5078,
      "icks": 5079,
      "rd": 5080,
      "pm": 5081,
      "ĠJanuary": 5082,
      "à®³": 5083,
      "move": 5084,
      "Ġ27": 5085,
      "Ġcallback": 5086,
      "Ġcounter": 5087,
      "Ġexpression": 5088,
      "IB": 5089,
      "Eng": 5090,
      "handle": 5091,
      "Ġhtml": 5092,
      "Ġprofess": 5093,
      "Ġdiag": 5094,
      "rael": 5095,
      "edit": 5096,
      "unity": 5097,
      "ashington": 5098,
      "adem": 5099,
      "Ġ2012": 5100,
      "keys": 5101,
      "Token": 5102,
      "Sl": 5103,
      ",-": 5104,
      "term": 5105,
      "quote": 5106,
      "Ġcontr": 5107,
      "ham": 5108,
      "aved": 5109,
      "Ġchannel": 5110,
      "Ġimages": 5111,
      "Ġdro": 5112,
      "After": 5113,
      "Ġmath": 5114,
      "Ġ''": 5115,
      "delete": 5116,
      "package": 5117,
      "oon": 5118,
      "Cell": 5119,
      "Ġvers": 5120,
      "Ġtorch": 5121,
      "ĠUs": 5122,
      "Ġsun": 5123,
      "Ġgun": 5124,
      "Ġnumer": 5125,
      "ĠWhile": 5126,
      "service": 5127,
      "Tree": 5128,
      "Ġactive": 5129,
      "Ġthreat": 5130,
      "Ġallows": 5131,
      "Ġresource": 5132,
      "Us": 5133,
      "lections": 5134,
      "Ġround": 5135,
      "ĠChar": 5136,
      "Ġled": 5137,
      "IP": 5138,
      "Ġmodern": 5139,
      "ONG": 5140,
      "ĠST": 5141,
      "Server": 5142,
      "orem": 5143,
      "match": 5144,
      "Callback": 5145,
      "gebra": 5146,
      "Ġstation": 5147,
      "Returns": 5148,
      "Ġnecessary": 5149,
      "ĠAb": 5150,
      "Ġ2014": 5151,
      "------------": 5152,
      "WA": 5153,
      "Ġty": 5154,
      "ĠCity": 5155,
      "Ġpi": 5156,
      "Ġhands": 5157,
      "Fe": 5158,
      "ights": 5159,
      "bon": 5160,
      "Ġunsigned": 5161,
      "Ġdoor": 5162,
      "Ġexperiment": 5163,
      "Ġcandid": 5164,
      "Ġwall": 5165,
      "/\">": 5166,
      "Ġhistor": 5167,
      "Me": 5168,
      "Ġbillion": 5169,
      "Ġnuc": 5170,
      "ĠHar": 5171,
      "ĠAugust": 5172,
      "QL": 5173,
      "stack": 5174,
      "insert": 5175,
      "Ġprinc": 5176,
      "Edit": 5177,
      "rum": 5178,
      "ĠNAME": 5179,
      "Ġbird": 5180,
      "Ġ90": 5181,
      "Ġapprox": 5182,
      "Arg": 5183,
      "Ġlegal": 5184,
      "áĢ": 5185,
      "ĠObject": 5186,
      "RL": 5187,
      "à¯Ĩ": 5188,
      "ĠWeb": 5189,
      "Offset": 5190,
      "Ġcop": 5191,
      "Ġparents": 5192,
      "Attribute": 5193,
      "ĠSeptember": 5194,
      "NA": 5195,
      "ĠSte": 5196,
      "è¿": 5197,
      "batch": 5198,
      "Ġheart": 5199,
      "dec": 5200,
      "Ġcoordin": 5201,
      "prefix": 5202,
      "pread": 5203,
      "Menu": 5204,
      "URE": 5205,
      "Ġheav": 5206,
      "101": 5207,
      "dark": 5208,
      "Ġrev": 5209,
      "serif": 5210,
      "Part": 5211,
      "Task": 5212,
      "\",\"": 5213,
      "Ġorg": 5214,
      "fx": 5215,
      "Op": 5216,
      "Sp": 5217,
      "uby": 5218,
      "æķ": 5219,
      "Ġcharacters": 5220,
      "Ġtrain": 5221,
      "uate": 5222,
      "ky": 5223,
      "URL": 5224,
      "wikipedia": 5225,
      "sz": 5226,
      "Ġtechnology": 5227,
      "Ġtd": 5228,
      "store": 5229,
      "coll": 5230,
      "Ġservices": 5231,
      "rics": 5232,
      "ALSE": 5233,
      "Ġlisten": 5234,
      "Ġconsole": 5235,
      "Dr": 5236,
      "Ġnotice": 5237,
      "Ġstarting": 5238,
      "Current": 5239,
      "Ġ),": 5240,
      "Ġhar": 5241,
      "Ġtraining": 5242,
      "dest": 5243,
      "Ġhear": 5244,
      "Ġoperation": 5245,
      "9999": 5246,
      "yper": 5247,
      "[-": 5248,
      "Ġlibrary": 5249,
      "Ap": 5250,
      "fc": 5251,
      "Ġ>>": 5252,
      "ĠMon": 5253,
      "pped": 5254,
      "Ġwebsite": 5255,
      "ĠEast": 5256,
      "Ġupd": 5257,
      "aling": 5258,
      "spacing": 5259,
      "Ġchall": 5260,
      "classes": 5261,
      "čĊĠĠĠĠĠĠĠĠĠĠĠĠĠĠĠĠĠĠĠ": 5262,
      "ĠAcc": 5263,
      "should": 5264,
      "names": 5265,
      "atively": 5266,
      "urren": 5267,
      "toggle": 5268,
      "ĠAfr": 5269,
      "annels": 5270,
      "Ġcontact": 5271,
      "ech": 5272,
      "gest": 5273,
      "comple": 5274,
      "ĠMed": 5275,
      "Yes": 5276,
      "Ġce": 5277,
      "Ġsens": 5278,
      "LIC": 5279,
      "enced": 5280,
      "WORD": 5281,
      "rier": 5282,
      "Ġblue": 5283,
      "Ġareas": 5284,
      "Ġtowards": 5285,
      "debug": 5286,
      "Ġagree": 5287,
      "Ġneighb": 5288,
      "Ġach": 5289,
      "ĠKing": 5290,
      "displaystyle": 5291,
      "fficient": 5292,
      "Ġphone": 5293,
      "sa": 5294,
      "sin": 5295,
      "omen": 5296,
      "ĠMore": 5297,
      "ĠĠĠĠĠĠĠĠĠĠĠĠ": 5298,
      "ddit": 5299,
      "outer": 5300,
      "theme": 5301,
      "Ġpackage": 5302,
      "ĠValue": 5303,
      "amma": 5304,
      "gif": 5305,
      "Ġvict": 5306,
      "Entry": 5307,
      "ATA": 5308,
      "Write": 5309,
      "ĠII": 5310,
      "track": 5311,
      "expr": 5312,
      "lambda": 5313,
      "Ġnegative": 5314,
      "Ġvertical": 5315,
      "æĺ": 5316,
      "ĊĠĠĠĠĠĠĠĠĊĠĠĠĠĠĠĠ": 5317,
      "Iter": 5318,
      "pyx": 5319,
      "detail": 5320,
      "IGN": 5321,
      "req": 5322,
      "rees": 5323,
      "Ġchoice": 5324,
      "pite": 5325,
      "dden": 5326,
      "Ġstar": 5327,
      "Ġmyself": 5328,
      "Ġfit": 5329,
      "Ġplease": 5330,
      "Height": 5331,
      "Ġaltern": 5332,
      "ĠUp": 5333,
      "Ġsad": 5334,
      "Ġfeed": 5335,
      "Resource": 5336,
      "\">&#": 5337,
      "nes": 5338,
      "igr": 5339,
      "acro": 5340,
      "Ġcondition": 5341,
      "Ġdict": 5342,
      "ĠSam": 5343,
      "Ġscope": 5344,
      "ĊĠĠĠĠĠĠĠĠĠĠĠĠĠĠĠĠĠĠĠĠ": 5345,
      "ĠWindow": 5346,
      "à¥": 5347,
      "vm": 5348,
      "[:": 5349,
      "rome": 5350,
      "ades": 5351,
      "ĠSO": 5352,
      "Ġwants": 5353,
      "Ġindustry": 5354,
      "Ġbooks": 5355,
      "Tag": 5356,
      "Ġlearning": 5357,
      "ĠSm": 5358,
      "iforn": 5359,
      "}_{": 5360,
      "Ġprogress": 5361,
      "itute": 5362,
      ",.": 5363,
      "Ġbal": 5364,
      "exports": 5365,
      "ĊĊĠĠ": 5366,
      "Layout": 5367,
      "ulations": 5368,
      "Ġbehavior": 5369,
      "Ġbill": 5370,
      "raz": 5371,
      "Widget": 5372,
      "ÃŃ": 5373,
      "help": 5374,
      "Ġà®ķ": 5375,
      "Ġeffects": 5376,
      "pu": 5377,
      "scri": 5378,
      "Ġinvolved": 5379,
      "transition": 5380,
      "DA": 5381,
      "Ġeffic": 5382,
      "ĠApp": 5383,
      "Ġreach": 5384,
      "erm": 5385,
      "Ġlau": 5386,
      "strict": 5387,
      "tn": 5388,
      "Description": 5389,
      "Ġcommit": 5390,
      "ĠWashington": 5391,
      "Ġ2013": 5392,
      "=(": 5393,
      "Ġknowledge": 5394,
      "Ġeasily": 5395,
      "Ġdefine": 5396,
      "Ġcapital": 5397,
      "Ġbrain": 5398,
      "ying": 5399,
      ":\"": 5400,
      "Ġens": 5401,
      "Ġkids": 5402,
      "ican": 5403,
      "Ġà®ª": 5404,
      "eps": 5405,
      "Ġ2000": 5406,
      "6666": 5407,
      "ĠCongress": 5408,
      "Ġequations": 5409,
      "iple": 5410,
      "RES": 5411,
      "bold": 5412,
      "Ġfinally": 5413,
      "Ġlayer": 5414,
      "Ġcontain": 5415,
      "HTML": 5416,
      "Ġitems": 5417,
      "She": 5418,
      "save": 5419,
      "ĠGeneral": 5420,
      "ĠWhy": 5421,
      "alar": 5422,
      "Ġlarger": 5423,
      "///": 5424,
      "Ġproper": 5425,
      "Ġgreen": 5426,
      "iler": 5427,
      "\">.</": 5428,
      "ĠDon": 5429,
      "čĊĉĉĉ": 5430,
      "Ġlock": 5431,
      "Ġprevent": 5432,
      "ĠTV": 5433,
      "Ġshared": 5434,
      "global": 5435,
      "IF": 5436,
      "Ġpush": 5437,
      "ulated": 5438,
      "ĠPre": 5439,
      "Ġ\\\\": 5440,
      "full": 5441,
      "olec": 5442,
      "Valid": 5443,
      "ql": 5444,
      "pute": 5445,
      "Ġpressure": 5446,
      "Ġapply": 5447,
      "argument": 5448,
      "ĠJava": 5449,
      "Ġmid": 5450,
      "umber": 5451,
      "rapper": 5452,
      "Ġrotate": 5453,
      "ael": 5454,
      "da": 5455,
      "Br": 5456,
      "ĠMax": 5457,
      "Ġselected": 5458,
      "unic": 5459,
      "ĠSub": 5460,
      "Ġotherwise": 5461,
      "_(": 5462,
      "Ġphysical": 5463,
      "ĠAg": 5464,
      "ĠOctober": 5465,
      "ĠHT": 5466,
      "Ġclosed": 5467,
      "Ġconnection": 5468,
      "Ġpoor": 5469,
      "omial": 5470,
      "GB": 5471,
      "Ġeconomic": 5472,
      "Ġlack": 5473,
      "ifornia": 5474,
      "Ġprote": 5475,
      "Ġcredit": 5476,
      "how": 5477,
      "free": 5478,
      "iant": 5479,
      "imately": 5480,
      "interface": 5481,
      "ias": 5482,
      "ĠâĢĺ": 5483,
      "ĠMich": 5484,
      "Ġmother": 5485,
      "Ġbroad": 5486,
      "mu": 5487,
      "Ġobserv": 5488,
      "Ġjson": 5489,
      "product": 5490,
      "Ġdirectory": 5491,
      "Ġsafe": 5492,
      "Ġtemperature": 5493,
      "Ġ29": 5494,
      "Ġletter": 5495,
      "Obj": 5496,
      "Ġlevels": 5497,
      "Ġtf": 5498,
      "ĠLib": 5499,
      "Ġspect": 5500,
      "Ġmoved": 5501,
      "Version": 5502,
      "xff": 5503,
      "Ġcontract": 5504,
      "settings": 5505,
      "\">=</": 5506,
      "och": 5507,
      "rought": 5508,
      "Ġsmiled": 5509,
      "ĠASSERT": 5510,
      "Ġclasses": 5511,
      "Ġcharge": 5512,
      "ĠNovember": 5513,
      "Ġ2011": 5514,
      "Search": 5515,
      "language": 5516,
      "mitted": 5517,
      ",\\": 5518,
      "ecute": 5519,
      "bedd": 5520,
      "æĪ": 5521,
      "Ġnet": 5522,
      "___": 5523,
      "SET": 5524,
      "Ġthus": 5525,
      "real": 5526,
      "ĠIsrael": 5527,
      "Ġmaximum": 5528,
      "Ġplatform": 5529,
      "Ġedge": 5530,
      "room": 5531,
      "ĠCheck": 5532,
      "sample": 5533,
      "Interface": 5534,
      "Ġregister": 5535,
      "AND": 5536,
      "Ġerr": 5537,
      "Ġparser": 5538,
      "Ġphilosoph": 5539,
      "Ġprovides": 5540,
      "Target": 5541,
      "Ġshit": 5542,
      "ĠEven": 5543,
      "Ġenjoy": 5544,
      "........": 5545,
      "ĠSince": 5546,
      "ifying": 5547,
      "Vis": 5548,
      "theta": 5549,
      "Ġearlier": 5550,
      "ĠEarth": 5551,
      "illa": 5552,
      "stop": 5553,
      "layout": 5554,
      "home": 5555,
      "Ġdeb": 5556,
      "Ġcivil": 5557,
      "Ġcharg": 5558,
      "Ġfinancial": 5559,
      "Font": 5560,
      "malink": 5561,
      "MAT": 5562,
      "Ġnorm": 5563,
      "Ġclick": 5564,
      "ocity": 5565,
      "COLOR": 5566,
      "bruary": 5567,
      "aste": 5568,
      "osing": 5569,
      "ummy": 5570,
      "sort": 5571,
      "escriptor": 5572,
      "Ġsal": 5573,
      "DT": 5574,
      "ani": 5575,
      "Ġaccur": 5576,
      "NULL": 5577,
      "ĠDecember": 5578,
      "ĠArt": 5579,
      "Ġexamples": 5580,
      "random": 5581,
      "Ġgenerally": 5582,
      "300": 5583,
      "Ġdrop": 5584,
      ")}": 5585,
      "details": 5586,
      "Ġtrade": 5587,
      "roke": 5588,
      "utral": 5589,
      "Params": 5590,
      "ĠGL": 5591,
      "car": 5592,
      "Inst": 5593,
      "PL": 5594,
      "ĠOut": 5595,
      "orial": 5596,
      "bot": 5597,
      "ption": 5598,
      "aight": 5599,
      "Ġunique": 5600,
      "Ġ///": 5601,
      "Ġopened": 5602,
      "Ġconstruct": 5603,
      "Ġ2020": 5604,
      "allel": 5605,
      "quad": 5606,
      "ĠMod": 5607,
      "levision": 5608,
      "400": 5609,
      "Case": 5610,
      "Are": 5611,
      "Ġsets": 5612,
      "Ġdemon": 5613,
      "Ġattention": 5614,
      "gov": 5615,
      "ategy": 5616,
      "è¯": 5617,
      "Ġfather": 5618,
      "Ġhuge": 5619,
      "Ġnor": 5620,
      "Ġfine": 5621,
      "aches": 5622,
      "urg": 5623,
      "âĶ": 5624,
      "Ġasync": 5625,
      "Ġprobability": 5626,
      "ishing": 5627,
      "lished": 5628,
      "Ġoperations": 5629,
      "Ġ(*": 5630,
      "atically": 5631,
      "berg": 5632,
      "ĠWhite": 5633,
      "čĊčĊĠĠĠĠĠĠĠ": 5634,
      "Ġplot": 5635,
      "Ġelection": 5636,
      "ĠĠĠĠĠĠĠĠĠĠĠĠĠĠĠ": 5637,
      "CS": 5638,
      "à®ļ": 5639,
      "Ġmoving": 5640,
      "Ġincludes": 5641,
      "Ġthous": 5642,
      "road": 5643,
      "Lo": 5644,
      "ampl": 5645,
      "Ġeat": 5646,
      "Ġ70": 5647,
      "ĠSoftware": 5648,
      "Ġ2019": 5649,
      "Ġtoken": 5650,
      "Ġrecomm": 5651,
      "Ġvoice": 5652,
      "Ġsociety": 5653,
      "beta": 5654,
      "Ġok": 5655,
      "Ġ65": 5656,
      "Ġcomments": 5657,
      "capt": 5658,
      "ĠWAR": 5659,
      "Ġpair": 5660,
      "Down": 5661,
      "Ġmsg": 5662,
      "selected": 5663,
      "Ġability": 5664,
      "yg": 5665,
      "Ġdirector": 5666,
      "CD": 5667,
      "tip": 5668,
      "ĠCalifornia": 5669,
      "Web": 5670,
      "TER": 5671,
      "ĠDes": 5672,
      "Ġexists": 5673,
      "Ġlearned": 5674,
      "undred": 5675,
      "kwargs": 5676,
      "des": 5677,
      "mail": 5678,
      "Ġbeaut": 5679,
      "UP": 5680,
      "primary": 5681,
      "XT": 5682,
      "Ġcool": 5683,
      "Ġequival": 5684,
      "anges": 5685,
      "success": 5686,
      "Ġchem": 5687,
      "Ġfra": 5688,
      "ĠNOT": 5689,
      "iced": 5690,
      "ĠCreate": 5691,
      "Ġweeks": 5692,
      "çĶ¨": 5693,
      "Ġcourt": 5694,
      "Ġspecies": 5695,
      "ĠLa": 5696,
      "printf": 5697,
      "ĠPython": 5698,
      "CHECK": 5699,
      "Ġow": 5700,
      "emo": 5701,
      "Ġrecently": 5702,
      "axis": 5703,
      "Ġvirtual": 5704,
      "ĠMethod": 5705,
      "Tool": 5706,
      "ees": 5707,
      "++;": 5708,
      "atur": 5709,
      "Ġaxis": 5710,
      "ntax": 5711,
      "Ġimpact": 5712,
      "replace": 5713,
      "ondon": 5714,
      "ĠHigh": 5715,
      "Ġupper": 5716,
      "Ġhappens": 5717,
      "Ġmaint": 5718,
      "Ġdiscover": 5719,
      "ĠOther": 5720,
      "Ġ2004": 5721,
      "Ġpen": 5722,
      "Ġforces": 5723,
      "icons": 5724,
      "alloc": 5725,
      "Ġboard": 5726,
      "symbol": 5727,
      "Ġfollowed": 5728,
      "ums": 5729,
      "dropdown": 5730,
      "Ġdou": 5731,
      "Ġsell": 5732,
      "LOG": 5733,
      "Ġpiece": 5734,
      "Ġloop": 5735,
      "eler": 5736,
      "Ġson": 5737,
      "Ġvote": 5738,
      "assertEqual": 5739,
      "Entity": 5740,
      "Ġkilled": 5741,
      ")),": 5742,
      "ieved": 5743,
      "Ġtests": 5744,
      "Ġrespond": 5745,
      "bc": 5746,
      "pay": 5747,
      "Ġepis": 5748,
      "Ġdegree": 5749,
      "variable": 5750,
      "cout": 5751,
      "Ġparticip": 5752,
      "Ġcollection": 5753,
      "ĠAND": 5754,
      "initely": 5755,
      "Ġ35": 5756,
      "Ġemer": 5757,
      "Ġcalls": 5758,
      "ĠYour": 5759,
      "ĠDavid": 5760,
      "Ġwhatever": 5761,
      "ĠOf": 5762,
      "Ġexplain": 5763,
      "Ġalone": 5764,
      "Ġroad": 5765,
      "Ġdeveloped": 5766,
      "Ġgenerate": 5767,
      "Ġresources": 5768,
      "Ġ500": 5769,
      "istribut": 5770,
      "while": 5771,
      "orge": 5772,
      "itution": 5773,
      "ĠRef": 5774,
      "ĠHTML": 5775,
      "Ġgreater": 5776,
      "ĠMr": 5777,
      "Ġchoose": 5778,
      "TRUE": 5779,
      "Ġspeak": 5780,
      "ho": 5781,
      "that": 5782,
      "Range": 5783,
      "Ġsignal": 5784,
      "Ġvel": 5785,
      "Ġinterview": 5786,
      "Ġfederal": 5787,
      "Ġpull": 5788,
      "ä¸Ģ": 5789,
      "ENSE": 5790,
      "#&": 5791,
      "othing": 5792,
      "Ġsecret": 5793,
      "ĠUse": 5794,
      "Ġparse": 5795,
      "site": 5796,
      "sem": 5797,
      "except": 5798,
      "Ġgoal": 5799,
      "ĊĠĠĠĠĠĠĠĠĠĠĠĠĠĠĠĠĠĠĠĠĠĠĠĠĠĠĠĠĠĠĠĠĠĠĠĠĠĠĠ": 5800,
      "2014": 5801,
      "Ġsomew": 5802,
      "ĠHel": 5803,
      "Ġnearly": 5804,
      "Ġanti": 5805,
      "~~~~": 5806,
      "Ġlives": 5807,
      "vider": 5808,
      "ĠObama": 5809,
      "izont": 5810,
      "Access": 5811,
      "Ġdied": 5812,
      "Ġsources": 5813,
      "ado": 5814,
      "Ġcombin": 5815,
      "åĬ": 5816,
      "ĠJack": 5817,
      "ĠAny": 5818,
      "ĠNote": 5819,
      "onym": 5820,
      "sych": 5821,
      "Ġapplications": 5822,
      "Ġalthough": 5823,
      "isions": 5824,
      "Ġnavigation": 5825,
      "kind": 5826,
      "Ġprimary": 5827,
      "Ġangle": 5828,
      "Ġesc": 5829,
      "Track": 5830,
      "hematics": 5831,
      "Ġchance": 5832,
      "even": 5833,
      "ĠCounty": 5834,
      "oded": 5835,
      "FOR": 5836,
      "Ġattribute": 5837,
      "NameLink": 5838,
      "Note": 5839,
      "holder": 5840,
      "total": 5841,
      "ining": 5842,
      "åŃ": 5843,
      "ĠLog": 5844,
      "Ġstraight": 5845,
      "Ġsurv": 5846,
      "Ġà®µ": 5847,
      "Level": 5848,
      "Ġsupported": 5849,
      "Factory": 5850,
      "Ġmovie": 5851,
      "ategories": 5852,
      "ĠRem": 5853,
      "temp": 5854,
      "Ġdie": 5855,
      "typename": 5856,
      "ĠEl": 5857,
      "ĊĠĠĊĠ": 5858,
      "Ĥ¬": 5859,
      "Ġdatabase": 5860,
      "Parameter": 5861,
      "(!": 5862,
      "Ġ{\"": 5863,
      "Ġwife": 5864,
      "hljs": 5865,
      "Ġmut": 5866,
      "ously": 5867,
      "Ġten": 5868,
      "Work": 5869,
      "friend": 5870,
      "Ġsetting": 5871,
      "UB": 5872,
      "Ġnature": 5873,
      "Ġtravel": 5874,
      "Ġplaces": 5875,
      "Ġ'\\": 5876,
      "Ġgrowth": 5877,
      "Ġproduced": 5878,
      "Americ": 5879,
      "di": 5880,
      "ĠBush": 5881,
      "Co": 5882,
      "ĠFrench": 5883,
      "icker": 5884,
      "urity": 5885,
      "clus": 5886,
      "Ġsmaller": 5887,
      "reshold": 5888,
      "ĠArch": 5889,
      "crete": 5890,
      "Ġblog": 5891,
      "ĠMost": 5892,
      "Ġ*)": 5893,
      ">:": 5894,
      "vol": 5895,
      "Lib": 5896,
      "Ġà®¤": 5897,
      "Ċĉĉĉĉĉĉĉ": 5898,
      "ĠComm": 5899,
      "dot": 5900,
      "ĠDepartment": 5901,
      "Ġcareer": 5902,
      "Ġà®®": 5903,
      "Ġ31": 5904,
      "cel": 5905,
      "Red": 5906,
      "2020": 5907,
      "Met": 5908,
      "star": 5909,
      "Ġmask": 5910,
      "bes": 5911,
      "ille": 5912,
      "serve": 5913,
      "hash": 5914,
      "register": 5915,
      "Local": 5916,
      "Ġ<!--": 5917,
      "Ġrequires": 5918,
      "ĠEuropean": 5919,
      "NN": 5920,
      "Ġkept": 5921,
      "ĠIran": 5922,
      "Builder": 5923,
      "Ġpractice": 5924,
      "itation": 5925,
      "Ġdownload": 5926,
      "blog": 5927,
      "widget": 5928,
      "tk": 5929,
      "band": 5930,
      "Ġstock": 5931,
      "plain": 5932,
      "Ġcaref": 5933,
      "Ġquality": 5934,
      ">)": 5935,
      "\"},": 5936,
      "Ġobtain": 5937,
      "\"))": 5938,
      "player": 5939,
      "Ġsleep": 5940,
      "Ġopin": 5941,
      "ading": 5942,
      "Ġcore": 5943,
      "Ġreasons": 5944,
      "Ġliteral": 5945,
      "Ġincreasing": 5946,
      "otion": 5947,
      "ĠPaul": 5948,
      "scroll": 5949,
      "Ġwave": 5950,
      "Ġhighlight": 5951,
      "Ġspent": 5952,
      "xe": 5953,
      "Ġbed": 5954,
      "Ġrap": 5955,
      "Ġcells": 5956,
      "Ġmeant": 5957,
      "Ġ45": 5958,
      "umi": 5959,
      ">.</": 5960,
      "faces": 5961,
      "Ġ{\\": 5962,
      "Ġexisting": 5963,
      "ka": 5964,
      "screen": 5965,
      "Ġsolve": 5966,
      "cline": 5967,
      "Ġmix": 5968,
      "Ġdemand": 5969,
      "missions": 5970,
      "olar": 5971,
      "Ġadministration": 5972,
      "Ġagreed": 5973,
      "Ġcast": 5974,
      "ĠForm": 5975,
      "vey": 5976,
      "Ġbasis": 5977,
      "Ġgiving": 5978,
      "ĠAmericans": 5979,
      "ĠWork": 5980,
      "ĠFebruary": 5981,
      "oined": 5982,
      "sheet": 5983,
      "Ġbg": 5984,
      "ĠReturns": 5985,
      "isf": 5986,
      "Ġdesigned": 5987,
      "Ð»": 5988,
      "Ġbrought": 5989,
      "}^": 5990,
      "Ġang": 5991,
      "endl": 5992,
      "%\"": 5993,
      "2013": 5994,
      "pres": 5995,
      "Go": 5996,
      "Body": 5997,
      "dc": 5998,
      "Ġproduce": 5999,
      "DS": 6000,
      "oted": 6001,
      "2011": 6002,
      "nth": 6003,
      "Dec": 6004,
      "irectory": 6005,
      "Ġcompar": 6006,
      "ĠTime": 6007,
      "allow": 6008,
      "resource": 6009,
      "Ġunits": 6010,
      "ĠCour": 6011,
      "sn": 6012,
      "ĠFunction": 6013,
      "Ġleaders": 6014,
      "addr": 6015,
      "Ġindependent": 6016,
      "ables": 6017,
      "Ġrace": 6018,
      "IA": 6019,
      "Ġjump": 6020,
      "imin": 6021,
      "iterator": 6022,
      "Ġ1000": 6023,
      "ĠAc": 6024,
      "Ġsettings": 6025,
      "ĠWindows": 6026,
      "hold": 6027,
      "hood": 6028,
      "front": 6029,
      "parser": 6030,
      "location": 6031,
      "Ġord": 6032,
      "profile": 6033,
      "Here": 6034,
      "ĠError": 6035,
      "Change": 6036,
      "Find": 6037,
      "Ġcontaining": 6038,
      "note": 6039,
      "Dir": 6040,
      "Title": 6041,
      "Ġstack": 6042,
      "wd": 6043,
      "custom": 6044,
      "GN": 6045,
      "Ġformula": 6046,
      "Ġdemonstr": 6047,
      "vet": 6048,
      "ĠBOO": 6049,
      "ĠWARRAN": 6050,
      "aily": 6051,
      "ĠDO": 6052,
      "ĠKore": 6053,
      "Ġactions": 6054,
      "ĠFree": 6055,
      "Port": 6056,
      "inese": 6057,
      "modules": 6058,
      "Ġstri": 6059,
      "pair": 6060,
      "props": 6061,
      "ONE": 6062,
      "rgb": 6063,
      "Ġscore": 6064,
      "_{\\": 6065,
      "Well": 6066,
      "ĠLondon": 6067,
      "Ġbatch": 6068,
      "Ġvisit": 6069,
      "semb": 6070,
      "hest": 6071,
      "PORT": 6072,
      "Ġyield": 6073,
      "omic": 6074,
      ")=": 6075,
      "(__": 6076,
      "Ġ{'": 6077,
      "ordered": 6078,
      "anguages": 6079,
      "Ġmissing": 6080,
      "Ġsing": 6081,
      "Ġlicense": 6082,
      "Ġculture": 6083,
      "Ġhundred": 6084,
      "Ġship": 6085,
      "cut": 6086,
      "ida": 6087,
      "ĠMA": 6088,
      "Ġeventually": 6089,
      "Ġcook": 6090,
      "Ġideas": 6091,
      "non": 6092,
      "expected": 6093,
      "800": 6094,
      "Bo": 6095,
      "Ġut": 6096,
      "Ġeth": 6097,
      "iday": 6098,
      "Ġslight": 6099,
      "ancy": 6100,
      "'))": 6101,
      "ĠMac": 6102,
      "Ġrepe": 6103,
      "Ġready": 6104,
      "ĠSI": 6105,
      "Ġtermin": 6106,
      "antic": 6107,
      "auth": 6108,
      "Parent": 6109,
      "Ġsteps": 6110,
      "Ġbecomes": 6111,
      "PR": 6112,
      "Ġblood": 6113,
      "Ġestablished": 6114,
      "Ġpicture": 6115,
      "Ġ\">": 6116,
      "Ġfootball": 6117,
      "Ġelectron": 6118,
      "ario": 6119,
      "Ġcollect": 6120,
      "Ġimmediately": 6121,
      "ĠAre": 6122,
      "access": 6123,
      "liance": 6124,
      "Ġfear": 6125,
      "Ġsou": 6126,
      "Ġinternational": 6127,
      "ĠLin": 6128,
      "lines": 6129,
      "Ġtruth": 6130,
      "fit": 6131,
      "EMA": 6132,
      ")]": 6133,
      "ctx": 6134,
      "Ġgenerated": 6135,
      "levant": 6136,
      "you": 6137,
      "BB": 6138,
      "Ġtypename": 6139,
      "overn": 6140,
      "Ġbeginning": 6141,
      "ĠComp": 6142,
      "LL": 6143,
      "sidebar": 6144,
      "itect": 6145,
      "Ġmill": 6146,
      "izontal": 6147,
      "Ġshowed": 6148,
      "Ġbur": 6149,
      "Ġvolume": 6150,
      "{}": 6151,
      "tee": 6152,
      "Global": 6153,
      "jection": 6154,
      "Ġinvestig": 6155,
      "åľ": 6156,
      "Ġessential": 6157,
      "è¡": 6158,
      "ris": 6159,
      "Ġ2003": 6160,
      "blem": 6161,
      "Ġcompared": 6162,
      "estamp": 6163,
      "Url": 6164,
      "ĠHol": 6165,
      "Ġdev": 6166,
      "mathbb": 6167,
      "under": 6168,
      "colLast": 6169,
      "FC": 6170,
      "Sum": 6171,
      "\">)</": 6172,
      "Ġprotect": 6173,
      "iful": 6174,
      "Ġjustify": 6175,
      "eval": 6176,
      "Ġorigin": 6177,
      "yt": 6178,
      "cache": 6179,
      "SO": 6180,
      "Ġcontinued": 6181,
      "Ġweap": 6182,
      "Ġproof": 6183,
      "-\\": 6184,
      "^^": 6185,
      "ĠNews": 6186,
      "Ġprefer": 6187,
      "direction": 6188,
      "IR": 6189,
      "Ġhyp": 6190,
      "Ġseparate": 6191,
      "Ġer": 6192,
      "ĠĊĠĠĠ": 6193,
      "mathbf": 6194,
      "Ġpaid": 6195,
      "Ġinterested": 6196,
      "Ġassume": 6197,
      "Ġprograms": 6198,
      "Ġcertainly": 6199,
      "Column": 6200,
      "ĠGroup": 6201,
      "Ġeasier": 6202,
      "Ġfollows": 6203,
      "'><": 6204,
      "cloud": 6205,
      "iences": 6206,
      "Ġforms": 6207,
      "Ġdestroy": 6208,
      "entity": 6209,
      "Ġcentral": 6210,
      "ĠPhys": 6211,
      "Ġbinary": 6212,
      "ĠRepublican": 6213,
      "ĠTimmy": 6214,
      "ãĢģ": 6215,
      "Ġdescribe": 6216,
      "sourceLine": 6217,
      "Ġgold": 6218,
      "uman": 6219,
      "orph": 6220,
      "callback": 6221,
      "Transform": 6222,
      "Ġdepth": 6223,
      "colFirst": 6224,
      "Ġinterval": 6225,
      "master": 6226,
      "Ġimplementation": 6227,
      "Ġconsum": 6228,
      "Ġ300": 6229,
      "Ġdrink": 6230,
      "Rel": 6231,
      "ĠInternational": 6232,
      "Impl": 6233,
      "lm": 6234,
      "Ġyes": 6235,
      "EXT": 6236,
      "Ġaud": 6237,
      "Vec": 6238,
      "acement": 6239,
      "Ġparticularly": 6240,
      "Ġremain": 6241,
      "Ġendif": 6242,
      "Ġinteger": 6243,
      "onald": 6244,
      "Ġbre": 6245,
      "results": 6246,
      "æķ°": 6247,
      "ddenly": 6248,
      "icate": 6249,
      "Ġreve": 6250,
      "Ġeconomy": 6251,
      "Ġsession": 6252,
      "Ġtransfer": 6253,
      "Ġunderstanding": 6254,
      "ĠPRO": 6255,
      "Flags": 6256,
      "edge": 6257,
      "arian": 6258,
      "Ġdetermine": 6259,
      "mean": 6260,
      "Ġ$(": 6261,
      "ĠFace": 6262,
      "IGHT": 6263,
      "itiz": 6264,
      "Ġgone": 6265,
      "ĠNor": 6266,
      "components": 6267,
      "Ġcline": 6268,
      "TC": 6269,
      "Ġleading": 6270,
      "Ġmist": 6271,
      "Ġminimum": 6272,
      "Ġappears": 6273,
      "Icon": 6274,
      "nother": 6275,
      "Î±": 6276,
      "ĠBlack": 6277,
      "ĠAir": 6278,
      "ydro": 6279,
      "Ġ[\"": 6280,
      "Ġmovement": 6281,
      "Ġtherefore": 6282,
      "green": 6283,
      "Po": 6284,
      "Listener": 6285,
      "Ġindicates": 6286,
      "Ġprogramming": 6287,
      "Pass": 6288,
      "children": 6289,
      "Ġstre": 6290,
      "foo": 6291,
      "Ġheat": 6292,
      "pk": 6293,
      "Ġforeign": 6294,
      "tests": 6295,
      "flag": 6296,
      "born": 6297,
      "Texture": 6298,
      "Mon": 6299,
      "modal": 6300,
      "ĠLO": 6301,
      "Ġfeeling": 6302,
      "hemat": 6303,
      "2012": 6304,
      "Ġreached": 6305,
      "Ġpers": 6306,
      "Ġstage": 6307,
      "Float": 6308,
      "libr": 6309,
      "ROM": 6310,
      "Sign": 6311,
      "Ġplane": 6312,
      "chron": 6313,
      "partial": 6314,
      "ĠPat": 6315,
      "Ġarm": 6316,
      "Ġconfiguration": 6317,
      "gers": 6318,
      "inct": 6319,
      "Ġerrors": 6320,
      "(.": 6321,
      "reset": 6322,
      "eb": 6323,
      "Ġperhaps": 6324,
      "dw": 6325,
      "Ġcarry": 6326,
      "ĠBecause": 6327,
      "Ã³": 6328,
      "âĶĢ": 6329,
      "Ġtools": 6330,
      "sol": 6331,
      "anation": 6332,
      "session": 6333,
      "DC": 6334,
      "}{\\": 6335,
      "xc": 6336,
      "Ġstudent": 6337,
      "Ġdrive": 6338,
      "ĠFig": 6339,
      "Ġviews": 6340,
      "bad": 6341,
      "OB": 6342,
      "GET": 6343,
      "MAX": 6344,
      "xl": 6345,
      "Ġdocumentation": 6346,
      "Ġsaf": 6347,
      "iring": 6348,
      "yond": 6349,
      "etic": 6350,
      "cmd": 6351,
      "inding": 6352,
      "ĠSan": 6353,
      "ĠCanada": 6354,
      "Ġment": 6355,
      "Ġpages": 6356,
      "FILE": 6357,
      "ĠCoun": 6358,
      "flict": 6359,
      "Â·": 6360,
      "lor": 6361,
      "men": 6362,
      "Ġtour": 6363,
      "ampion": 6364,
      "parameters": 6365,
      "Ġcomponents": 6366,
      "Sw": 6367,
      "elligence": 6368,
      "Ġmale": 6369,
      "Ġflag": 6370,
      "Ã¼": 6371,
      "Ġà¤": 6372,
      "Ġrates": 6373,
      "ipeline": 6374,
      "Ġlaws": 6375,
      "ĠWilli": 6376,
      "anner": 6377,
      "bing": 6378,
      "Ġsorry": 6379,
      "Ġclub": 6380,
      "Ġmostly": 6381,
      "Ġshot": 6382,
      "{\"": 6383,
      "Ġseconds": 6384,
      "Ġappropri": 6385,
      "Ġeducation": 6386,
      "dk": 6387,
      "black": 6388,
      "Ġlimited": 6389,
      "Ġscene": 6390,
      "ctors": 6391,
      "\"));": 6392,
      "ĠWIT": 6393,
      "Ġmajority": 6394,
      "Ġnodes": 6395,
      "ĠPark": 6396,
      "FE": 6397,
      "Ġrect": 6398,
      "she": 6399,
      "Ġsans": 6400,
      "Ġspread": 6401,
      "Ġborn": 6402,
      "fb": 6403,
      "Mark": 6404,
      "Ġmeas": 6405,
      "Ġliked": 6406,
      "Net": 6407,
      "anted": 6408,
      "pressed": 6409,
      "Ġappeared": 6410,
      "MB": 6411,
      "legal": 6412,
      "Parser": 6413,
      "then": 6414,
      "pdf": 6415,
      "Ġjoin": 6416,
      "Ġrout": 6417,
      "Ġanimals": 6418,
      "unit": 6419,
      "sect": 6420,
      "Ġlots": 6421,
      "Ġsec": 6422,
      "bound": 6423,
      "othes": 6424,
      "ctree": 6425,
      "Ġ!==": 6426,
      "ÂłÂłÂłÂł": 6427,
      "identifier": 6428,
      "inn": 6429,
      "egr": 6430,
      "udget": 6431,
      "Dat": 6432,
      "ufact": 6433,
      "Ġlargest": 6434,
      "stats": 6435,
      "Ġcosts": 6436,
      "ailed": 6437,
      "enge": 6438,
      "Ġapplied": 6439,
      "iate": 6440,
      "zon": 6441,
      "IND": 6442,
      "bytes": 6443,
      "video": 6444,
      "ĠRel": 6445,
      "čĊčĊč": 6446,
      "Ġanimation": 6447,
      "||": 6448,
      "produ": 6449,
      "Ġcalling": 6450,
      "tools": 6451,
      "tags": 6452,
      "udd": 6453,
      "arp": 6454,
      ")*": 6455,
      "EMAIL": 6456,
      "ĠWell": 6457,
      "Ġsolutions": 6458,
      "ĠFile": 6459,
      "Ġnuclear": 6460,
      "Ġpurpose": 6461,
      "osh": 6462,
      "aughter": 6463,
      "Ġtelevision": 6464,
      "Ġlocated": 6465,
      "2019": 6466,
      "Ġmicro": 6467,
      "Ġdir": 6468,
      "Ġopport": 6469,
      "Ġnation": 6470,
      "Ġcollege": 6471,
      "Why": 6472,
      "Ġtrust": 6473,
      "Ġ75": 6474,
      "ĠVersion": 6475,
      "unique": 6476,
      "ported": 6477,
      "Ġconduct": 6478,
      "âĤ¬": 6479,
      "<!": 6480,
      "Ġbug": 6481,
      "channel": 6482,
      "Ġtouch": 6483,
      "cil": 6484,
      "Ġscen": 6485,
      "Ġbeyond": 6486,
      "Ġcry": 6487,
      "\">[": 6488,
      "IDTH": 6489,
      "anned": 6490,
      "Ġfully": 6491,
      "SIZE": 6492,
      "Ġassign": 6493,
      "Ġsplit": 6494,
      "fix": 6495,
      "memberNameLink": 6496,
      "hematical": 6497,
      "cap": 6498,
      "ç»": 6499,
      "ĠĠĠĠĠĠĠĠĠĠĠĠĠ": 6500,
      "ĠFOR": 6501,
      "}(": 6502,
      "cover": 6503,
      "Controller": 6504,
      "Ġexcited": 6505,
      "Ġ400": 6506,
      "Ġsites": 6507,
      "ensional": 6508,
      "Ġ(<": 6509,
      "LP": 6510,
      "ĠModel": 6511,
      "333": 6512,
      "vention": 6513,
      "cv": 6514,
      "uler": 6515,
      "atin": 6516,
      "eq": 6517,
      "Ġauth": 6518,
      "Ġfle": 6519,
      "aby": 6520,
      "ynomial": 6521,
      "Ġcorresponding": 6522,
      "Ġstudies": 6523,
      "tw": 6524,
      "Ġsexual": 6525,
      "Game": 6526,
      "GS": 6527,
      "Ġ2001": 6528,
      "','": 6529,
      "Ġwonder": 6530,
      "Dep": 6531,
      "NS": 6532,
      "Ġconserv": 6533,
      "Ġoptional": 6534,
      "ĠText": 6535,
      "alled": 6536,
      "rr": 6537,
      "orary": 6538,
      "Ġbond": 6539,
      "cdot": 6540,
      "_);": 6541,
      "unn": 6542,
      "hol": 6543,
      "ASSERT": 6544,
      "ĊĉĠĠĠ": 6545,
      "Ġremoved": 6546,
      "Ġnoise": 6547,
      "ĠDi": 6548,
      "rey": 6549,
      "Ġincome": 6550,
      "Ġhaven": 6551,
      "ĠBer": 6552,
      "ĠFound": 6553,
      "Use": 6554,
      "Ġthank": 6555,
      ")/": 6556,
      "Comp": 6557,
      "phi": 6558,
      "Ġsys": 6559,
      "Ġdanger": 6560,
      "****************************************************************": 6561,
      "izations": 6562,
      "cho": 6563,
      "Ġalleg": 6564,
      "ĊĠĠĠĠĠĠĠĠĠĠĠĠĠĠĠĠĠĠĠĠĠĠĠĠĠ": 6565,
      "uters": 6566,
      "hent": 6567,
      "Ġveh": 6568,
      "Ġstories": 6569,
      "Ġhour": 6570,
      "romise": 6571,
      "Vertex": 6572,
      "ĠUnion": 6573,
      "Ġwat": 6574,
      "Ġcreating": 6575,
      "Settings": 6576,
      "feature": 6577,
      "ĠPhil": 6578,
      "ĠMo": 6579,
      "Ġrank": 6580,
      "uing": 6581,
      "Ne": 6582,
      "IX": 6583,
      "arter": 6584,
      "Ġshift": 6585,
      "čĊĠĠĠĠ": 6586,
      "uzz": 6587,
      "ĠSk": 6588,
      "Ġwind": 6589,
      "Mso": 6590,
      "Cache": 6591,
      "tensor": 6592,
      "Document": 6593,
      "ires": 6594,
      "ĠPeople": 6595,
      "Ġreli": 6596,
      "urance": 6597,
      "Ġtesting": 6598,
      "è®": 6599,
      "Rep": 6600,
      "Ġactivity": 6601,
      "Ġconstr": 6602,
      "toctree": 6603,
      "ĠRead": 6604,
      "Ġgrand": 6605,
      "Ġtab": 6606,
      "ĠRober": 6607,
      "Ġsett": 6608,
      "Ġsupposed": 6609,
      "Ġshoot": 6610,
      "admin": 6611,
      "Ġonto": 6612,
      "urface": 6613,
      "game": 6614,
      "sizing": 6615,
      "ĠChinese": 6616,
      "Ġguys": 6617,
      "ission": 6618,
      "ĠScience": 6619,
      "Ġradio": 6620,
      "Ġsounds": 6621,
      "CESS": 6622,
      "Ġratio": 6623,
      "Ġcalculate": 6624,
      "éĢ": 6625,
      "Sk": 6626,
      "ĠKey": 6627,
      "ĠMag": 6628,
      "fin": 6629,
      "Ġexplicit": 6630,
      "Ġtend": 6631,
      "Ġ}}</": 6632,
      "bits": 6633,
      "Ġexception": 6634,
      "Ġvisual": 6635,
      "byte": 6636,
      "enty": 6637,
      "ĊĉĊ": 6638,
      "email": 6639,
      "Ġfrequency": 6640,
      "Ġ'/": 6641,
      "%);": 6642,
      "Ġ33": 6643,
      "edu": 6644,
      "ened": 6645,
      "otal": 6646,
      "Ġmorning": 6647,
      "åĽ": 6648,
      "Ġruns": 6649,
      "Ã¶": 6650,
      "iers": 6651,
      "Ġworkers": 6652,
      "Ġmount": 6653,
      "OUT": 6654,
      "Ġvill": 6655,
      "Ġip": 6656,
      "American": 6657,
      "ste": 6658,
      "Ġofficials": 6659,
      "frames": 6660,
      "Ġclearly": 6661,
      "Ġconvers": 6662,
      "ĠSpec": 6663,
      "UD": 6664,
      "lose": 6665,
      "History": 6666,
      "ĠYes": 6667,
      "shot": 6668,
      "Ġdise": 6669,
      "Ġreality": 6670,
      "Ġdb": 6671,
      "Ġexternal": 6672,
      "125": 6673,
      "Ġrad": 6674,
      "ĠLaw": 6675,
      "+\\": 6676,
      "Ġhr": 6677,
      "Ġspend": 6678,
      "apers": 6679,
      "å¼": 6680,
      "spective": 6681,
      "acle": 6682,
      "omin": 6683,
      "Ġequivalent": 6684,
      "Ġreaction": 6685,
      "=\"{{": 6686,
      "Grid": 6687,
      "enter": 6688,
      "ĠBG": 6689,
      "BUG": 6690,
      "Ġestablish": 6691,
      "ifest": 6692,
      "look": 6693,
      "ims": 6694,
      "assets": 6695,
      "Layer": 6696,
      "Ġearth": 6697,
      "Each": 6698,
      "ĠMex": 6699,
      "USE": 6700,
      "Ġdebt": 6701,
      "Ġfloor": 6702,
      "Ġaffect": 6703,
      "prop": 6704,
      "blockquote": 6705,
      "ACT": 6706,
      "ĊĊĠĠĠĠ": 6707,
      "account": 6708,
      "Ġbul": 6709,
      "ĠTwitter": 6710,
      "Ġcamera": 6711,
      "reement": 6712,
      "sys": 6713,
      "Msg": 6714,
      "tabs": 6715,
      "2010": 6716,
      "Ġmeeting": 6717,
      "ĠUK": 6718,
      "Ġmolec": 6719,
      "words": 6720,
      "ossible": 6721,
      ")[": 6722,
      "python": 6723,
      "HA": 6724,
      "}</": 6725,
      "diff": 6726,
      "Ġtopic": 6727,
      "Ġcovered": 6728,
      "ango": 6729,
      "ius": 6730,
      "xs": 6731,
      "ĠOver": 6732,
      "Ġaria": 6733,
      "Ġpowerful": 6734,
      "Ġannounced": 6735,
      "Ġmedical": 6736,
      "111": 6737,
      "reddit": 6738,
      "Values": 6739,
      "seq": 6740,
      "Ġunless": 6741,
      "Labels": 6742,
      "Ġjournal": 6743,
      "Ġhighly": 6744,
      "vetica": 6745,
      "Ġlived": 6746,
      ".$": 6747,
      "Ġcircle": 6748,
      "ĠPublic": 6749,
      "Ġsen": 6750,
      "ĠJew": 6751,
      "\">#": 6752,
      "THER": 6753,
      "ĠMus": 6754,
      "Ġmock": 6755,
      "ĠRoman": 6756,
      "cedure": 6757,
      "Ġstopped": 6758,
      "nam": 6759,
      "ilon": 6760,
      "rans": 6761,
      "2000": 6762,
      "Ġì": 6763,
      "Ġcontainer": 6764,
      "Ġstrict": 6765,
      "Ġfaster": 6766,
      "Ġutil": 6767,
      "Ġroll": 6768,
      "2017": 6769,
      "PAR": 6770,
      "caption": 6771,
      "à¯Ĭ": 6772,
      "Ġeight": 6773,
      "2015": 6774,
      "ĠRussia": 6775,
      "dataset": 6776,
      "Main": 6777,
      "Ġil": 6778,
      "Ġterror": 6779,
      "ĠInc": 6780,
      "zero": 6781,
      "merc": 6782,
      "special": 6783,
      "ĠRich": 6784,
      "istan": 6785,
      "react": 6786,
      ";,": 6787,
      "Ġwriter": 6788,
      "Ġpurch": 6789,
      "æĺ¯": 6790,
      "Ġenter": 6791,
      "dx": 6792,
      "Ġdw": 6793,
      "ĠFacebook": 6794,
      "lyph": 6795,
      "irror": 6796,
      "Ġcritic": 6797,
      "xA": 6798,
      "logo": 6799,
      "zen": 6800,
      "rian": 6801,
      "Ġmanagement": 6802,
      "itable": 6803,
      "Ġsuffer": 6804,
      "bal": 6805,
      ">\"": 6806,
      "Ġjobs": 6807,
      "ails": 6808,
      "category": 6809,
      "Ġmus": 6810,
      "Ġadvant": 6811,
      "Ġprinciple": 6812,
      "Ġwish": 6813,
      "ĠJournal": 6814,
      "clusion": 6815,
      "fg": 6816,
      "TEXT": 6817,
      "STAT": 6818,
      "fields": 6819,
      "ĠParam": 6820,
      "Ġ99": 6821,
      "ĠJames": 6822,
      "anchor": 6823,
      "overflow": 6824,
      "Ġinterpret": 6825,
      "Ġcopyright": 6826,
      "Ġmentioned": 6827,
      "ĠKe": 6828,
      "king": 6829,
      "Ġmessages": 6830,
      "Ġincreased": 6831,
      "Ġgrav": 6832,
      "parameter": 6833,
      "osite": 6834,
      "Ġ36": 6835,
      "Ġuniverse": 6836,
      "Ġadding": 6837,
      "ao": 6838,
      "ĠCre": 6839,
      "Ġelectric": 6840,
      "Core": 6841,
      "Ġkernel": 6842,
      "aaaa": 6843,
      "aud": 6844,
      "ĠOff": 6845,
      "ĠAnt": 6846,
      "Unit": 6847,
      "xref": 6848,
      "Ġprove": 6849,
      "INFO": 6850,
      "ĠGermany": 6851,
      "Ġasking": 6852,
      "Ġpriv": 6853,
      "ĠCenter": 6854,
      "Ġcalc": 6855,
      "ĠChristian": 6856,
      ".'": 6857,
      "Ġknows": 6858,
      "Ðº": 6859,
      "ACE": 6860,
      "Ġmur": 6861,
      "Ġpsych": 6862,
      "Step": 6863,
      "Ġcaused": 6864,
      "Ġeffective": 6865,
      "Ġphase": 6866,
      "Oh": 6867,
      "Ġraw": 6868,
      "ĠBro": 6869,
      "Ġnovel": 6870,
      "dig": 6871,
      "uf": 6872,
      "ĠVer": 6873,
      "Ġkeys": 6874,
      "okes": 6875,
      "ĠGeorge": 6876,
      "Ġcos": 6877,
      "ĠAR": 6878,
      "Ġeditor": 6879,
      "'])": 6880,
      "Ġclaims": 6881,
      "ĠSum": 6882,
      "Ġtrou": 6883,
      "ĠApple": 6884,
      "Ġprison": 6885,
      "Ġsatisf": 6886,
      "Ġseemed": 6887,
      "Ã¢": 6888,
      "Ġqual": 6889,
      "Enum": 6890,
      "osen": 6891,
      "za": 6892,
      "Ġhelped": 6893,
      "Ġderiv": 6894,
      "BE": 6895,
      "icenses": 6896,
      "adr": 6897,
      "netic": 6898,
      "Â¶": 6899,
      "oral": 6900,
      "Ġ2002": 6901,
      ">[": 6902,
      "Ġbrowser": 6903,
      "Ġminor": 6904,
      "async": 6905,
      "metric": 6906,
      "ĠJer": 6907,
      "endar": 6908,
      "ipe": 6909,
      "ĠâĢ¦": 6910,
      "Click": 6911,
      "quired": 6912,
      ".*": 6913,
      "ĠIndia": 6914,
      "2018": 6915,
      "Que": 6916,
      "features": 6917,
      "bert": 6918,
      "ĠStreet": 6919,
      "Location": 6920,
      "Ġwest": 6921,
      "ago": 6922,
      "ji": 6923,
      "Struct": 6924,
      "operator": 6925,
      "progress": 6926,
      "prev": 6927,
      "mock": 6928,
      "Ġexam": 6929,
      "Draw": 6930,
      "VM": 6931,
      "cript": 6932,
      "events": 6933,
      "Ġaspect": 6934,
      "Some": 6935,
      "Am": 6936,
      "å°": 6937,
      "conv": 6938,
      "čĊčĊĠ": 6939,
      "Ġdiscussion": 6940,
      "absolute": 6941,
      "Ġdataset": 6942,
      "Ġwide": 6943,
      "Ġhair": 6944,
      "igration": 6945,
      "Ġple": 6946,
      "Ġthroughout": 6947,
      "pool": 6948,
      "CI": 6949,
      "à¹": 6950,
      "Writ": 6951,
      "icensed": 6952,
      "ILITY": 6953,
      "ĠParty": 6954,
      "Ġinternet": 6955,
      "porting": 6956,
      "Bit": 6957,
      "ĠCollege": 6958,
      "Tab": 6959,
      "ĠSy": 6960,
      "=[": 6961,
      "nodes": 6962,
      "001": 6963,
      "ĠOper": 6964,
      "component": 6965,
      "ifies": 6966,
      "apply": 6967,
      "agment": 6968,
      "power": 6969,
      "ĠBase": 6970,
      "Ġhug": 6971,
      "enum": 6972,
      "checkbox": 6973,
      "ANT": 6974,
      "-->": 6975,
      "Ġconnected": 6976,
      "ĠField": 6977,
      "Ġweak": 6978,
      "Ġlanguages": 6979,
      "//----------------------------------------------------------------": 6980,
      "Ġextension": 6981,
      "manager": 6982,
      "Cre": 6983,
      "Ver": 6984,
      "Ġmanager": 6985,
      "/\"": 6986,
      "boot": 6987,
      "inton": 6988,
      "âĶĢâĶĢ": 6989,
      "ĠURL": 6990,
      "Player": 6991,
      "Ġcitiz": 6992,
      "private": 6993,
      "ĠMichael": 6994,
      "ĠCourt": 6995,
      "arse": 6996,
      "ĠVol": 6997,
      "lik": 6998,
      "ĠAssoci": 6999,
      "Ġinn": 7000,
      "switch": 7001,
      "Ġdecre": 7002,
      "world": 7003,
      "âĸ": 7004,
      "LS": 7005,
      "AP": 7006,
      "ĠApache": 7007,
      "Ġdetail": 7008,
      "Ġsamples": 7009,
      "Mesh": 7010,
      "obs": 7011,
      "TIES": 7012,
      "Ġnorth": 7013,
      "MD": 7014,
      "Ġbasically": 7015,
      "Ġdad": 7016,
      "Ġreduce": 7017,
      "Ġbeautiful": 7018,
      "Ġrare": 7019,
      "pers": 7020,
      "secut": 7021,
      "ITION": 7022,
      "alysis": 7023,
      "network": 7024,
      ":\\": 7025,
      "Ġpreviously": 7026,
      "ĠĊĠ": 7027,
      "Ġreports": 7028,
      "HR": 7029,
      "Ġhash": 7030,
      "ĠLeague": 7031,
      "Ġinfinite": 7032,
      "ien": 7033,
      "æĹ": 7034,
      "ĠTimes": 7035,
      "\"/>": 7036,
      "Comple": 7037,
      "ĠRussian": 7038,
      "initial": 7039,
      "wood": 7040,
      "browser": 7041,
      "Ġdepart": 7042,
      "Ġsegment": 7043,
      "Ġconcent": 7044,
      "ãĥ¼": 7045,
      "Ġplans": 7046,
      "Ġradi": 7047,
      "Ġodd": 7048,
      "2016": 7049,
      "Ġpp": 7050,
      "strap": 7051,
      "Ġserved": 7052,
      "ato": 7053,
      "Ġfinding": 7054,
      "orrow": 7055,
      "Ġaware": 7056,
      "Ġsummary": 7057,
      "Ñĥ": 7058,
      "ifications": 7059,
      "Ġdensity": 7060,
      "Stat": 7061,
      "tf": 7062,
      "Ġcompute": 7063,
      "Ġ${\\": 7064,
      "aints": 7065,
      "boolean": 7066,
      "ĠCode": 7067,
      "Ġquantum": 7068,
      "TP": 7069,
      "norm": 7070,
      "Ġice": 7071,
      "watch": 7072,
      "Ġremains": 7073,
      "Ġsides": 7074,
      "\"</": 7075,
      ")));": 7076,
      "gry": 7077,
      "ĊĊĊĊĊ": 7078,
      "ĠFind": 7079,
      "iling": 7080,
      "itory": 7081,
      "Ġamaz": 7082,
      "Ġcache": 7083,
      "Ġfeet": 7084,
      "vs": 7085,
      "BO": 7086,
      "idents": 7087,
      "RR": 7088,
      "ĠPress": 7089,
      "Ġplaced": 7090,
      "dule": 7091,
      "ĠWARRANTIES": 7092,
      "ipal": 7093,
      "ello": 7094,
      "ĠRev": 7095,
      "emy": 7096,
      "href": 7097,
      "Ġctx": 7098,
      "Ġcategory": 7099,
      "Ġeye": 7100,
      "Sche": 7101,
      "Ġscientific": 7102,
      "Ġlogic": 7103,
      "Ġhumans": 7104,
      "ĠOur": 7105,
      "presents": 7106,
      "ĠStud": 7107,
      "Ġopinion": 7108,
      "ĠMet": 7109,
      "Ġur": 7110,
      "gp": 7111,
      "MsoNormal": 7112,
      "Ġ\"<": 7113,
      "flags": 7114,
      "Ġdebug": 7115,
      "ĠRun": 7116,
      "===": 7117,
      "QU": 7118,
      "Any": 7119,
      "ĠIP": 7120,
      "Ġtransport": 7121,
      "Ġsky": 7122,
      "Print": 7123,
      "score": 7124,
      "ĠPort": 7125,
      "Ġtoward": 7126,
      "Connection": 7127,
      "Ġtreatment": 7128,
      "ĠBGCOLOR": 7129,
      "ĠNumber": 7130,
      "ADD": 7131,
      "vertical": 7132,
      "Ġlatest": 7133,
      "Lily": 7134,
      "agon": 7135,
      "END": 7136,
      "Ġfreed": 7137,
      "west": 7138,
      "ushed": 7139,
      "Register": 7140,
      "Ġundefined": 7141,
      "Ġvisible": 7142,
      "circle": 7143,
      "Debug": 7144,
      "ictionary": 7145,
      "Bas": 7146,
      "Items": 7147,
      "Ġfilename": 7148,
      "Ġstick": 7149,
      "ĠMany": 7150,
      "uestion": 7151,
      "Ġinsp": 7152,
      "Show": 7153,
      "rf": 7154,
      "Ġcolspan": 7155,
      "ĠBas": 7156,
      "ĠHam": 7157,
      "Desc": 7158,
      "fty": 7159,
      "Ġ48": 7160,
      "ĠMaybe": 7161,
      "CR": 7162,
      "appe": 7163,
      ":-": 7164,
      "ĠTR": 7165,
      "à®´": 7166,
      "ĠThom": 7167,
      "ford": 7168,
      "Ġburn": 7169,
      "delta": 7170,
      "CTYPE": 7171,
      "ĊĠĠĠĠĠĠĠĠĠĠĠĠĠĠĠĠĠĠ": 7172,
      "ĠComput": 7173,
      "Ġplanet": 7174,
      "ano": 7175,
      "Variable": 7176,
      "Ġhous": 7177,
      "CP": 7178,
      "Ġenv": 7179,
      "Ġcolumns": 7180,
      "120": 7181,
      "Ġstaff": 7182,
      "yes": 7183,
      "arc": 7184,
      "ĠLine": 7185,
      "Ġfinished": 7186,
      "animation": 7187,
      "aws": 7188,
      "esome": 7189,
      "house": 7190,
      "den": 7191,
      "################################": 7192,
      "Ġshut": 7193,
      "det": 7194,
      "ffect": 7195,
      "ĠOrder": 7196,
      "Ġdream": 7197,
      "alog": 7198,
      "ĠIndian": 7199,
      "ãĤĭ": 7200,
      "otes": 7201,
      "Multi": 7202,
      "Exp": 7203,
      "thead": 7204,
      ")->": 7205,
      "Don": 7206,
      "May": 7207,
      "dialog": 7208,
      "ested": 7209,
      "ĠDoc": 7210,
      "wait": 7211,
      "ĠName": 7212,
      "claim": 7213,
      "vents": 7214,
      "Ġappropriate": 7215,
      "Success": 7216,
      "Ġworse": 7217,
      "wx": 7218,
      "600": 7219,
      "lebr": 7220,
      "pet": 7221,
      "related": 7222,
      "urrency": 7223,
      "olic": 7224,
      "ospital": 7225,
      "Ġwx": 7226,
      "oday": 7227,
      "AGE": 7228,
      "Ġ##": 7229,
      "agraph": 7230,
      "Ġslightly": 7231,
      "Dialog": 7232,
      "Ġearn": 7233,
      "Ġ2021": 7234,
      "Ġreplace": 7235,
      "greg": 7236,
      "wide": 7237,
      "Store": 7238,
      "Lock": 7239,
      "wer": 7240,
      "aked": 7241,
      "force": 7242,
      "uda": 7243,
      "Ġfactors": 7244,
      "reek": 7245,
      "sb": 7246,
      "well": 7247,
      "ĠTwo": 7248,
      "ĠOP": 7249,
      "signature": 7250,
      "found": 7251,
      "ĠMicrosoft": 7252,
      "processor": 7253,
      "ĠLI": 7254,
      "Ġcorpor": 7255,
      "memItem": 7256,
      "Ġreject": 7257,
      "=-": 7258,
      "Ke": 7259,
      "Ġdu": 7260,
      "logger": 7261,
      "mercial": 7262,
      "Ġanswers": 7263,
      "Ġ{};": 7264,
      "neutral": 7265,
      "Ġobtained": 7266,
      "??": 7267,
      "ffffff": 7268,
      "century": 7269,
      "Fig": 7270,
      "ĠBel": 7271,
      "Ġcars": 7272,
      "Ġshowing": 7273,
      "ĠOptional": 7274,
      "Display": 7275,
      "onom": 7276,
      "Ġscared": 7277,
      "Ġrac": 7278,
      "Ġidx": 7279,
      "Ġapparent": 7280,
      "adian": 7281,
      "Ġpow": 7282,
      "ĠCall": 7283,
      "Ġvs": 7284,
      "Ġreligious": 7285,
      "sourceLineNo": 7286,
      "Ġkid": 7287,
      "Ġnotes": 7288,
      "ĠAlex": 7289,
      "ĠFrance": 7290,
      "skip": 7291,
      "Args": 7292,
      "Ġcritical": 7293,
      "Ġ\",": 7294,
      "Ġidentity": 7295,
      "Ġprojects": 7296,
      "ngth": 7297,
      "Ġentirely": 7298,
      "Engine": 7299,
      "WE": 7300,
      "åº": 7301,
      "ady": 7302,
      "Space": 7303,
      "Ġ00": 7304,
      "Ġfell": 7305,
      "Ġtro": 7306,
      "Memory": 7307,
      "Ġrestrict": 7308,
      "Ġselection": 7309,
      "Ġcoe": 7310,
      "external": 7311,
      "utorial": 7312,
      "Ġedit": 7313,
      "Stack": 7314,
      "expand": 7315,
      "Ġlab": 7316,
      "2008": 7317,
      "LINE": 7318,
      "ĠRob": 7319,
      "Ġdistrict": 7320,
      "Func": 7321,
      "ĠVector": 7322,
      "Ġconflict": 7323,
      "Ġextremely": 7324,
      "ĠCons": 7325,
      "ĠCr": 7326,
      "ĠAng": 7327,
      "Ġsigned": 7328,
      "olutely": 7329,
      "Ġended": 7330,
      "DOCTYPE": 7331,
      "ansion": 7332,
      ">{{": 7333,
      "($": 7334,
      "hy": 7335,
      "Ġcharset": 7336,
      "ILE": 7337,
      "ĠTechn": 7338,
      "Ġchain": 7339,
      "si": 7340,
      "Ġfavorite": 7341,
      "Session": 7342,
      "isher": 7343,
      "ĠEngland": 7344,
      "Ġreceive": 7345,
      "Order": 7346,
      "sigma": 7347,
      "Ġmultip": 7348,
      "Ġbright": 7349,
      "dp": 7350,
      "Ġthousands": 7351,
      "simple": 7352,
      "transp": 7353,
      "Ġchart": 7354,
      "Ġcold": 7355,
      "arant": 7356,
      "Ġfilms": 7357,
      "Sec": 7358,
      ",'": 7359,
      "Ġensure": 7360,
      "icated": 7361,
      "Pointer": 7362,
      "]->": 7363,
      "opacity": 7364,
      "Ġforced": 7365,
      "protobuf": 7366,
      "Ag": 7367,
      "Ġproposed": 7368,
      "about": 7369,
      "Ġgrowing": 7370,
      "redu": 7371,
      "ĠInit": 7372,
      "Ġelectr": 7373,
      "ĠPower": 7374,
      "Ġbits": 7375,
      "Ġincor": 7376,
      "short": 7377,
      "inder": 7378,
      "ĠSenate": 7379,
      "Reference": 7380,
      "structure": 7381,
      "Ġ\"-": 7382,
      "Ġperformed": 7383,
      "ATH": 7384,
      "ĠLike": 7385,
      "Ġconstruction": 7386,
      "Att": 7387,
      "docutils": 7388,
      "Sm": 7389,
      "ĠMart": 7390,
      "Also": 7391,
      "iders": 7392,
      "Ġinherit": 7393,
      "ĠâĢ¢": 7394,
      "ĠShow": 7395,
      "ranslate": 7396,
      "Ġattract": 7397,
      "Ġextends": 7398,
      "Ġhurt": 7399,
      "Ġfailure": 7400,
      "icies": 7401,
      "Then": 7402,
      "Ġschools": 7403,
      "ĠUN": 7404,
      "Ġwid": 7405,
      "ether": 7406,
      "Just": 7407,
      "Ġpool": 7408,
      "æł": 7409,
      "Ġsequ": 7410,
      "='#": 7411,
      "Ġther": 7412,
      "onday": 7413,
      "Math": 7414,
      "Names": 7415,
      "kens": 7416,
      "ĠWed": 7417,
      "tl": 7418,
      "Ġprices": 7419,
      "Ġspaces": 7420,
      "æī": 7421,
      "Ġattr": 7422,
      "origin": 7423,
      "Ġ..": 7424,
      "Ġstrategy": 7425,
      "Ġsimpl": 7426,
      "inv": 7427,
      "Ġdriver": 7428,
      "eces": 7429,
      "Ġscroll": 7430,
      "mult": 7431,
      "ä¸ª": 7432,
      "à¯ĭ": 7433,
      "editor": 7434,
      "neg": 7435,
      "Ġlogging": 7436,
      "login": 7437,
      "Ġbelief": 7438,
      "isc": 7439,
      "Ġblocks": 7440,
      "Ġclimate": 7441,
      "Ġfundament": 7442,
      "ĠTur": 7443,
      "Ġwilling": 7444,
      "asy": 7445,
      "ĠAccording": 7446,
      "Ġcv": 7447,
      "anging": 7448,
      "fully": 7449,
      "Ġsouth": 7450,
      ")$$": 7451,
      "ĠSE": 7452,
      "Ġstorage": 7453,
      "Ġisinstance": 7454,
      "_)": 7455,
      "RESULT": 7456,
      "ening": 7457,
      "ĠEach": 7458,
      "Template": 7459,
      "ĠCHECK": 7460,
      "uesday": 7461,
      "ĠDate": 7462,
      "Ġeast": 7463,
      "Ġcred": 7464,
      ")\"": 7465,
      ")^": 7466,
      "Pool": 7467,
      "ĠResearch": 7468,
      "ĠclassName": 7469,
      "handler": 7470,
      "states": 7471,
      "SL": 7472,
      "quo": 7473,
      "orter": 7474,
      "ĠTex": 7475,
      "NG": 7476,
      "ĠVAL": 7477,
      "ãģ«": 7478,
      "cursor": 7479,
      "ĠGreen": 7480,
      "eric": 7481,
      "Ġoverall": 7482,
      "Ġstarts": 7483,
      "ilies": 7484,
      "Ġlose": 7485,
      "Ġdeliver": 7486,
      "Tensor": 7487,
      "Ġsmart": 7488,
      "ĊĠĠĠĠĠĠĠĠĠĠĠĠĠĠĠĠĠĠĠĠĠĠĠĠĠĠĠĠĠ": 7489,
      "Ġfirm": 7490,
      "Ġfat": 7491,
      "ĠCam": 7492,
      "EST": 7493,
      "Ġlogger": 7494,
      "Ġpolitic": 7495,
      "pad": 7496,
      "hens": 7497,
      "warning": 7498,
      "Ġseeing": 7499,
      "Ġ74": 7500,
      "isp": 7501,
      "ãĤĴ": 7502,
      "Ġoccur": 7503,
      "ĠPM": 7504,
      "++++": 7505,
      "Ġworry": 7506,
      "Permalink": 7507,
      "IV": 7508,
      ")\">": 7509,
      "decl": 7510,
      "sequence": 7511,
      "Ġphysics": 7512,
      "coming": 7513,
      "Ġradius": 7514,
      "Ġdespite": 7515,
      "ea": 7516,
      "Ġleader": 7517,
      "ĠPoint": 7518,
      "Ġnotranslate": 7519,
      "002": 7520,
      "ĠJul": 7521,
      "apes": 7522,
      ".\"\"\"": 7523,
      "Second": 7524,
      "Ġbgcolor": 7525,
      "ĠAustralia": 7526,
      "onymous": 7527,
      "Ġheavy": 7528,
      "ĠMom": 7529,
      "ĠALI": 7530,
      "Gen": 7531,
      "labels": 7532,
      "unately": 7533,
      "Ġlabels": 7534,
      "Ġmotion": 7535,
      "Ġrecords": 7536,
      "ãģĻ": 7537,
      "irit": 7538,
      "Ġturns": 7539,
      "Ġendl": 7540,
      "^{-": 7541,
      "Ġleaving": 7542,
      "Ġepisode": 7543,
      "Ġowner": 7544,
      "Ġexerc": 7545,
      "Ġdefinitely": 7546,
      "DATA": 7547,
      "\"].": 7548,
      "Ġbrief": 7549,
      "paramname": 7550,
      "Ġcurve": 7551,
      "ĠDemocrats": 7552,
      "plications": 7553,
      "Ġcloser": 7554,
      "Ġextract": 7555,
      "Integer": 7556,
      "andard": 7557,
      "Ġxml": 7558,
      "Ġbranch": 7559,
      "Ġreserved": 7560,
      "Ġintroduced": 7561,
      "ĠOh": 7562,
      "Empty": 7563,
      "news": 7564,
      "heading": 7565,
      "Ġbattle": 7566,
      "Ġ{},": 7567,
      "memory": 7568,
      "Ġtells": 7569,
      "Ġvelocity": 7570,
      "mers": 7571,
      "Ġfemale": 7572,
      "isation": 7573,
      "2009": 7574,
      "ĊĊĊĊĊĊĊĊ": 7575,
      "ĠĠĠĠĠĠĠĠĠĠĠĠĠĠ": 7576,
      "domain": 7577,
      "Ġnumpy": 7578,
      "awn": 7579,
      "Ġobserved": 7580,
      "ĠInternet": 7581,
      "Ġimagine": 7582,
      "iques": 7583,
      "ingu": 7584,
      "van": 7585,
      "AV": 7586,
      "iffer": 7587,
      "ä¹": 7588,
      "ĠStep": 7589,
      "Ġraised": 7590,
      "Ġorganization": 7591,
      "Ġautomatically": 7592,
      "ker": 7593,
      "Ġadjust": 7594,
      "Ġ'./": 7595,
      "ĠClinton": 7596,
      "Ġhighest": 7597,
      "what": 7598,
      "olved": 7599,
      "Ġoriginally": 7600,
      "ĠColor": 7601,
      "infty": 7602,
      "lat": 7603,
      "phone": 7604,
      "FL": 7605,
      "=&": 7606,
      "ĠBay": 7607,
      "Ġinform": 7608,
      "ifdef": 7609,
      "Ġpun": 7610,
      "useum": 7611,
      "Â°": 7612,
      "Ġinsert": 7613,
      "notation": 7614,
      "roud": 7615,
      "Ġphilosophy": 7616,
      "PMC": 7617,
      "Ġarrest": 7618,
      "Ġsetup": 7619,
      "rb": 7620,
      "Ġbiggest": 7621,
      "akers": 7622,
      "Ġencour": 7623,
      "Ġcompare": 7624,
      "Ġprofile": 7625,
      "Ġtele": 7626,
      "cement": 7627,
      "_[": 7628,
      "Ġinfluence": 7629,
      "Che": 7630,
      "Active": 7631,
      "Ġpure": 7632,
      "Ġcolors": 7633,
      "Ġmaterials": 7634,
      "ini": 7635,
      "ĠSuper": 7636,
      "ĠPlease": 7637,
      "Hash": 7638,
      "Ġseven": 7639,
      "Ġrepresents": 7640,
      "Ġexplanation": 7641,
      "Ġchemical": 7642,
      "BOO": 7643,
      "110": 7644,
      "ĠGovern": 7645,
      "Ġbtn": 7646,
      "jango": 7647,
      "ota": 7648,
      "FR": 7649,
      "yy": 7650,
      "Ġcircum": 7651,
      "Ġalpha": 7652,
      "Ġwhom": 7653,
      "Ġprim": 7654,
      "Ġevolution": 7655,
      "Cur": 7656,
      "iation": 7657,
      "Ġalloc": 7658,
      "Ġconver": 7659,
      "iliar": 7660,
      "Ġmanufact": 7661,
      "ĠProject": 7662,
      "Record": 7663,
      "Ġrich": 7664,
      "Ġ34": 7665,
      "('/": 7666,
      "Shape": 7667,
      "Ġsupply": 7668,
      "va": 7669,
      "Ġnowrap": 7670,
      "Ġring": 7671,
      "WN": 7672,
      "indices": 7673,
      "Project": 7674,
      "Ġplant": 7675,
      "Look": 7676,
      "More": 7677,
      "ĠâĪ": 7678,
      "ĠDemocratic": 7679,
      "aming": 7680,
      "hi": 7681,
      "ĠInstitute": 7682,
      "dy": 7683,
      "Ġtensor": 7684,
      "ĠThus": 7685,
      "Ġsurround": 7686,
      "ĠBOOST": 7687,
      "Ġforg": 7688,
      "Ġresponsible": 7689,
      "auss": 7690,
      "sembly": 7691,
      "Ġflat": 7692,
      "Ġstrug": 7693,
      "čĊĠĠĠĠĠĠĠĠĠĠĠĠĠĠĠĠĠĠĠĠĠĠĠ": 7694,
      "*>(": 7695,
      "ĠÏ": 7696,
      "ĠFranc": 7697,
      "Copy": 7698,
      "FS": 7699,
      "plicated": 7700,
      "Option": 7701,
      "forward": 7702,
      "arden": 7703,
      "ĠMake": 7704,
      "ression": 7705,
      "metadata": 7706,
      "loop": 7707,
      "ander": 7708,
      "record": 7709,
      "lower": 7710,
      "Ġalgebra": 7711,
      "phas": 7712,
      "Shader": 7713,
      "library": 7714,
      "impl": 7715,
      "Ġstructures": 7716,
      "Ġlegis": 7717,
      "upid": 7718,
      "Ġ\"/": 7719,
      "ooth": 7720,
      "Ġrepresentation": 7721,
      "large": 7722,
      "Ġà®ļ": 7723,
      "Ġagent": 7724,
      "`,": 7725,
      "Ġdevices": 7726,
      "gorithms": 7727,
      "structions": 7728,
      "ĠDist": 7729,
      "(&(": 7730,
      "asion": 7731,
      "Ġrepeat": 7732,
      "#####": 7733,
      "multi": 7734,
      "CHAR": 7735,
      "download": 7736,
      "Ġversions": 7737,
      "Ġbelong": 7738,
      "Ġparallel": 7739,
      "angular": 7740,
      "Ġsin": 7741,
      "Ġtypically": 7742,
      "Ġhydro": 7743,
      "Reader": 7744,
      "Ġshall": 7745,
      "(){": 7746,
      "creen": 7747,
      "lymp": 7748,
      "Ġque": 7749,
      "Helper": 7750,
      "gray": 7751,
      "ĠJSON": 7752,
      "Ġdynamic": 7753,
      "Ġinj": 7754,
      "Ġvir": 7755,
      "Ġ175": 7756,
      "WS": 7757,
      "bose": 7758,
      "ĠFriday": 7759,
      "UserStyle": 7760,
      "isms": 7761,
      "rule": 7762,
      "ĊĊĊĠĠĠ": 7763,
      "Ġmetal": 7764,
      "Ð¼": 7765,
      "=\"-": 7766,
      "SPAN": 7767,
      "Ġpresented": 7768,
      "objects": 7769,
      "onic": 7770,
      "scious": 7771,
      "Ġspeech": 7772,
      "Ġspending": 7773,
      "Ġlang": 7774,
      "ARY": 7775,
      "zone": 7776,
      "Des": 7777,
      "elcome": 7778,
      "}_": 7779,
      "ERS": 7780,
      "Ġbrother": 7781,
      "à¯į<": 7782,
      "Ġefficient": 7783,
      "Ġbeg": 7784,
      "riage": 7785,
      "ĠIts": 7786,
      "submit": 7787,
      "ĠBill": 7788,
      "Ġexistence": 7789,
      "Ġspin": 7790,
      "\"/": 7791,
      "ĠDiv": 7792,
      "}.": 7793,
      "DEF": 7794,
      "ĠALIGN": 7795,
      "Delta": 7796,
      "Ġdimension": 7797,
      "ĠCalcul": 7798,
      "Host": 7799,
      "IVE": 7800,
      "Ġrelevant": 7801,
      "Ġlabor": 7802,
      "poses": 7803,
      "Ġhonest": 7804,
      "Ġ1999": 7805,
      "Ġprop": 7806,
      "Ġrecommend": 7807,
      "xd": 7808,
      "collapse": 7809,
      "Custom": 7810,
      "Properties": 7811,
      "ĠEnd": 7812,
      "ĠTODO": 7813,
      "Ġgeneration": 7814,
      "fast": 7815,
      "Ġindividuals": 7816,
      "depth": 7817,
      "Ġpeace": 7818,
      "WAR": 7819,
      "ĠBE": 7820,
      "Ġrelatively": 7821,
      "icode": 7822,
      "icket": 7823,
      "MT": 7824,
      "ĠDay": 7825,
      "Ġcandidate": 7826,
      "Abstract": 7827,
      "Root": 7828,
      "Ġdetermined": 7829,
      "Ġbroken": 7830,
      "ĠSun": 7831,
      "ĠTuesday": 7832,
      "HOUT": 7833,
      "ears": 7834,
      "doi": 7835,
      "ktop": 7836,
      "engine": 7837,
      "RT": 7838,
      "Ġluck": 7839,
      "ĠFil": 7840,
      "Ġendblock": 7841,
      "Ġreact": 7842,
      "inf": 7843,
      "Ġexit": 7844,
      "Ġdelay": 7845,
      "Ġupdated": 7846,
      "Ġstars": 7847,
      "license": 7848,
      "Ġformed": 7849,
      "Ġdepends": 7850,
      "ĠGold": 7851,
      "Ġcloud": 7852,
      "Ġprocesses": 7853,
      "Ġbear": 7854,
      "Ġtraditional": 7855,
      "program": 7856,
      "Ġignore": 7857,
      "Ġ150": 7858,
      "åĩ": 7859,
      "Ġposted": 7860,
      "UAL": 7861,
      "ĠSIZE": 7862,
      "Ġsyn": 7863,
      "à¤¾": 7864,
      "PUT": 7865,
      "Ġarchitect": 7866,
      "ĠMor": 7867,
      "Loc": 7868,
      "ya": 7869,
      "Ġfinite": 7870,
      "ĠMonday": 7871,
      "Pop": 7872,
      "Ġult": 7873,
      "Ġwalked": 7874,
      "ĠImage": 7875,
      "comments": 7876,
      "Ht": 7877,
      "Ġunivers": 7878,
      "xb": 7879,
      "pub": 7880,
      "oul": 7881,
      "Ġdamage": 7882,
      "Ġrid": 7883,
      "ĠEND": 7884,
      "Ġolder": 7885,
      "Ġwarn": 7886,
      "Queue": 7887,
      "ĠMer": 7888,
      "columns": 7889,
      "ĠService": 7890,
      "ĠChurch": 7891,
      "Ġsoft": 7892,
      "password": 7893,
      "ashed": 7894,
      "Ġchanging": 7895,
      "Ġru": 7896,
      "Ġcarbon": 7897,
      "åĨ": 7898,
      "Ġviolence": 7899,
      "Enc": 7900,
      "Ġ'<": 7901,
      "ĊĊĉĉĉ": 7902,
      "Byte": 7903,
      "Ġalternative": 7904,
      "Dom": 7905,
      "called": 7906,
      "Ġcontinuous": 7907,
      "Ġrough": 7908,
      "Ġskip": 7909,
      "Ġahead": 7910,
      "================================================================": 7911,
      "Ġexplained": 7912,
      "LOCK": 7913,
      "tuple": 7914,
      "Ġbyte": 7915,
      "Ġunknown": 7916,
      "ci": 7917,
      "()));": 7918,
      "Ġswe": 7919,
      "Ġ42": 7920,
      "BI": 7921,
      "ursday": 7922,
      "Ġremaining": 7923,
      "oes": 7924,
      "rible": 7925,
      "Ġmarried": 7926,
      "Ġseed": 7927,
      "*,": 7928,
      "Ġreflect": 7929,
      "ture": 7930,
      "ln": 7931,
      "ĊĊĠĠĠĠĠĠĠĠĠĠĠĠĠĠĠĠĠĠĠ": 7932,
      "Cor": 7933,
      "Ġbudget": 7934,
      "Ġvertex": 7935,
      "Ġsales": 7936,
      "ĠÂłĠÂł": 7937,
      "iments": 7938,
      "Ġentity": 7939,
      "Ġcash": 7940,
      "Ġgod": 7941,
      "abc": 7942,
      "WARE": 7943,
      "01010101": 7944,
      "Ġimpossible": 7945,
      "gar": 7946,
      "Ġcelebr": 7947,
      "essages": 7948,
      "ĠAlthough": 7949,
      "feed": 7950,
      "person": 7951,
      "xa": 7952,
      "Ġhate": 7953,
      "ĠVis": 7954,
      "sql": 7955,
      "ĠSecond": 7956,
      "Ġrise": 7957,
      "Ġanymore": 7958,
      "ĠArray": 7959,
      "2007": 7960,
      "uated": 7961,
      "ITE": 7962,
      "mouse": 7963,
      "ĠJapanese": 7964,
      "TABLE": 7965,
      "Ġimprove": 7966,
      "ĠEqu": 7967,
      "Ġbalance": 7968,
      "duration": 7969,
      "nesday": 7970,
      "Provider": 7971,
      "mathcal": 7972,
      "organ": 7973,
      "twitter": 7974,
      "Ġstored": 7975,
      "åľ¨": 7976,
      "Î¿": 7977,
      "ABILITY": 7978,
      "ANG": 7979,
      "Ġrequests": 7980,
      "Ġpossibly": 7981,
      "Orig": 7982,
      "License": 7983,
      "Ġmurder": 7984,
      "ĠBook": 7985,
      "Edge": 7986,
      "ĠStat": 7987,
      "ench": 7988,
      "cons": 7989,
      "Ġreplaced": 7990,
      "Async": 7991,
      "ĠBig": 7992,
      "ala": 7993,
      "ĠOnly": 7994,
      "Storage": 7995,
      "expl": 7996,
      "ĊĠĠĠĠĠĠĠĠĠĠĠĠĠĠĠĠĠĠĠĠĠĠĠĠĠĠĠĠĠĠĠĠĠĠĠĠĠĠĠĠĠĠĠ": 7997,
      "Ġpan": 7998,
      "JS": 7999,
      "Ġshouldn": 8000,
      "Ġattacks": 8001,
      "Ġimplied": 8002,
      "loader": 8003,
      "Ñı": 8004,
      "Channel": 8005,
      "Section": 8006,
      "Ġframework": 8007,
      "Ġstress": 8008,
      "layers": 8009,
      "ston": 8010,
      "iref": 8011,
      "éĩ": 8012,
      "sey": 8013,
      "ĠQue": 8014,
      "Ġchalleng": 8015,
      "ĠWIDTH": 8016,
      "Ġdecide": 8017,
      "Invalid": 8018,
      "Ġattributes": 8019,
      "contin": 8020,
      "El": 8021,
      "ĠMem": 8022,
      "Ġlayout": 8023,
      "æĿ": 8024,
      "ĠGen": 8025,
      "aration": 8026,
      "inity": 8027,
      "odies": 8028,
      "Ġadult": 8029,
      "Ġtelling": 8030,
      "Ġroute": 8031,
      "Ġconstructor": 8032,
      "Ġpaying": 8033,
      ")+": 8034,
      "Ġmassive": 8035,
      "ĠIslam": 8036,
      "READ": 8037,
      "chain": 8038,
      "plicate": 8039,
      "ĠAM": 8040,
      "Ġanyway": 8041,
      "FUN": 8042,
      "Ġrows": 8043,
      "Ġlat": 8044,
      "Ġtheme": 8045,
      "Ġadvantage": 8046,
      "Free": 8047,
      "Ġheaders": 8048,
      "Ġinstr": 8049,
      "runtime": 8050,
      "Ġinsurance": 8051,
      "Ġtrigger": 8052,
      "à®Ļ": 8053,
      "Ġprofessional": 8054,
      "cu": 8055,
      "includ": 8056,
      "isco": 8057,
      "Close": 8058,
      "Ġpassword": 8059,
      "Ġproud": 8060,
      "Ġwaiting": 8061,
      "bp": 8062,
      "appro": 8063,
      "iber": 8064,
      "ĠFoundation": 8065,
      "Ñĭ": 8066,
      "allery": 8067,
      "('#": 8068,
      "ĠRobert": 8069,
      "Ġprocessing": 8070,
      "Bytes": 8071,
      "Network": 8072,
      "ĠArmy": 8073,
      "Ġacceler": 8074,
      "ools": 8075,
      "sid": 8076,
      "operation": 8077,
      "Const": 8078,
      "Ġgain": 8079,
      "lab": 8080,
      "mes": 8081,
      "[:,": 8082,
      "Ġvec": 8083,
      "Ġfilled": 8084,
      "Ġadvice": 8085,
      "cean": 8086,
      "vg": 8087,
      "ni": 8088,
      "assign": 8089,
      "cg": 8090,
      "fonts": 8091,
      "clip": 8092,
      "Ġskin": 8093,
      "ancel": 8094,
      "åį": 8095,
      "Example": 8096,
      "Ġwood": 8097,
      "ologies": 8098,
      "Ġdomin": 8099,
      "ĠDonald": 8100,
      "Ġresulting": 8101,
      "Ġ61": 8102,
      "Ġflags": 8103,
      "ĠBob": 8104,
      "attribute": 8105,
      "Ġinvestigation": 8106,
      "ampionship": 8107,
      "Ġmaster": 8108,
      "CF": 8109,
      "Ġhell": 8110,
      "Ġdocuments": 8111,
      "ĠProgram": 8112,
      "ĠĊĠĠĠĠĠĠĠ": 8113,
      "Ġoccup": 8114,
      "Ġdollars": 8115,
      "Null": 8116,
      "Has": 8117,
      "Ġglass": 8118,
      "150": 8119,
      "People": 8120,
      "otten": 8121,
      "%%": 8122,
      "Ġ37": 8123,
      "prot": 8124,
      "DED": 8125,
      "Delete": 8126,
      "iteral": 8127,
      "AG": 8128,
      "tte": 8129,
      "ĠGreat": 8130,
      "basic": 8131,
      "etailed": 8132,
      "Ġchurch": 8133,
      "Mask": 8134,
      "Ġequip": 8135,
      "zip": 8136,
      "urred": 8137,
      "pointer": 8138,
      "Ġsig": 8139,
      "oses": 8140,
      "exception": 8141,
      "ĠMal": 8142,
      "iminal": 8143,
      "Ġrepeated": 8144,
      "Gui": 8145,
      "Ġbin": 8146,
      "Ġ1990": 8147,
      "ĠTop": 8148,
      "REG": 8149,
      "grade": 8150,
      "Ġjoint": 8151,
      "Ġintelligence": 8152,
      "Ġï": 8153,
      "otic": 8154,
      "BIT": 8155,
      "UTF": 8156,
      "Seg": 8157,
      "Full": 8158,
      "Ġdifferences": 8159,
      "quid": 8160,
      "$$\\": 8161,
      "Api": 8162,
      "Utils": 8163,
      "Ġdf": 8164,
      "FALSE": 8165,
      "chat": 8166,
      "rog": 8167,
      "ĠRepublicans": 8168,
      "Ġclock": 8169,
      "Ġdebate": 8170,
      "ĠNav": 8171,
      "Ġ'''": 8172,
      "Ġinputs": 8173,
      "stone": 8174,
      "Ġdiscovered": 8175,
      "SV": 8176,
      "čĊĠĠĠĠĠĠĠĠĠ": 8177,
      "Ġcycle": 8178,
      "Ġpor": 8179,
      "Sup": 8180,
      "Only": 8181,
      "Scale": 8182,
      "equiv": 8183,
      "brief": 8184,
      "Ġwealth": 8185,
      "woff": 8186,
      "ĠGraph": 8187,
      "azine": 8188,
      "Ġopposite": 8189,
      "Ġcoordinates": 8190,
      "Ġrealize": 8191,
      "Ġrealized": 8192,
      "Ġcrime": 8193,
      "Ġneighbor": 8194,
      "typed": 8195,
      "NET": 8196,
      "checked": 8197,
      "ĠStart": 8198,
      "}}\\": 8199,
      "å¯": 8200,
      "Ġshop": 8201,
      "ĠVar": 8202,
      "erve": 8203,
      "Ġestimate": 8204,
      "ĠTexas": 8205,
      "Ġà®¨": 8206,
      "agma": 8207,
      "Program": 8208,
      "ĠPeter": 8209,
      "Ġcompleted": 8210,
      "Ax": 8211,
      "ĠNetwork": 8212,
      "ĊĠĠĠĠĠĠĠĠĠĠĠĠĠĠĠĠĠĠĠĠĠĠĠĠĠĠ": 8213,
      "Ġfucking": 8214,
      "Ġdegrees": 8215,
      "Ġdoubt": 8216,
      "Ġdisease": 8217,
      "Ġ>>>": 8218,
      "Ġpolitics": 8219,
      "alert": 8220,
      "enable": 8221,
      "ĠStar": 8222,
      "ĠLou": 8223,
      "Ġpet": 8224,
      "à´": 8225,
      "Ġrespectively": 8226,
      "ifiers": 8227,
      "Ġdaughter": 8228,
      "eries": 8229,
      "Ġrain": 8230,
      "Ġhelps": 8231,
      "trl": 8232,
      "FAULT": 8233,
      "BY": 8234,
      "Ġcellpadding": 8235,
      "ĠDuring": 8236,
      "Ret": 8237,
      "Ġspot": 8238,
      "ĠGood": 8239,
      "Ġlaunch": 8240,
      "Ġpred": 8241,
      "Ġdefe": 8242,
      "æľī": 8243,
      "ingly": 8244,
      "Ġcapacity": 8245,
      "Wrapper": 8246,
      "LICENSE": 8247,
      "iency": 8248,
      "ĠWITHOUT": 8249,
      "Ġwild": 8250,
      "AAAA": 8251,
      "Ġfish": 8252,
      "getElement": 8253,
      "*.": 8254,
      "Ġpolynomial": 8255,
      "ĠWestern": 8256,
      "Ġsummer": 8257,
      "Ġholding": 8258,
      "single": 8259,
      "returns": 8260,
      ";\"": 8261,
      "Ġadapt": 8262,
      "csv": 8263,
      "World": 8264,
      "itz": 8265,
      "etween": 8266,
      "uations": 8267,
      "isis": 8268,
      "Ġsch": 8269,
      "ĠUser": 8270,
      "licenses": 8271,
      "BS": 8272,
      "Ġapplicable": 8273,
      "team": 8274,
      "=\"./": 8275,
      "ĠUsing": 8276,
      "?âĢĿ": 8277,
      "Ġgrab": 8278,
      "ĠÂ·": 8279,
      "Ġdress": 8280,
      "Ġfamilies": 8281,
      "Ġforest": 8282,
      "Ġparticle": 8283,
      "Ġshell": 8284,
      ">(<": 8285,
      "Ġmouse": 8286,
      "Ġpositions": 8287,
      "Vol": 8288,
      "ĠFin": 8289,
      "Head": 8290,
      "Attr": 8291,
      ")).": 8292,
      "ĠSund": 8293,
      "ĊĠĠĠĠĠĠĠĠĠĠĠĠĠĠĠĠĠĠĠĠĠĠĠĠĠĠĠĠ": 8294,
      "ĠTer": 8295,
      "nc": 8296,
      "Ġcommercial": 8297,
      "Ġban": 8298,
      "ups": 8299,
      "ros": 8300,
      "ĠEngine": 8301,
      "ä¸Ń": 8302,
      "Ġmagn": 8303,
      "Ġ``": 8304,
      "FTWARE": 8305,
      "ĠFrank": 8306,
      "Ġowners": 8307,
      "ĠThursday": 8308,
      "ometric": 8309,
      "ĠAtt": 8310,
      "VALID": 8311,
      "Ġabsolutely": 8312,
      "done": 8313,
      "obody": 8314,
      "Ġsafety": 8315,
      "report": 8316,
      "asket": 8317,
      "ailing": 8318,
      "Ġ72": 8319,
      "ĠRefer": 8320,
      "ï¿½ï¿½": 8321,
      "ï¼ļ": 8322,
      "Ġmach": 8323,
      "apsed": 8324,
      "ĠVir": 8325,
      "Expression": 8326,
      "plugin": 8327,
      "999": 8328,
      "ĠSource": 8329,
      "Ġefforts": 8330,
      "atar": 8331,
      "application": 8332,
      "Ġ1998": 8333,
      "ĠInstead": 8334,
      "Ġsand": 8335,
      "IBUT": 8336,
      "Ġsea": 8337,
      "@-": 8338,
      "Ġcellspacing": 8339,
      "Ġdetect": 8340,
      "role": 8341,
      "Ġboundary": 8342,
      "Long": 8343,
      "-\">": 8344,
      "ĠJun": 8345,
      "ĠWednesday": 8346,
      "Ġwatching": 8347,
      "Ġsusp": 8348,
      "kin": 8349,
      "Ġfreedom": 8350,
      "ester": 8351,
      "argv": 8352,
      "JSON": 8353,
      "UIRE": 8354,
      "Ġfol": 8355,
      "Ġ120": 8356,
      "Ġbigger": 8357,
      "care": 8358,
      "vron": 8359,
      "month": 8360,
      "ixels": 8361,
      "hh": 8362,
      "cient": 8363,
      "Light": 8364,
      "Ġtit": 8365,
      "Ġexpensive": 8366,
      "ĠLast": 8367,
      "azy": 8368,
      "Ġstroke": 8369,
      "ertific": 8370,
      "ĠPe": 8371,
      "toBe": 8372,
      "mid": 8373,
      "Ġpartial": 8374,
      "ĠArab": 8375,
      "ĠBack": 8376,
      "Ġuniform": 8377,
      "ceived": 8378,
      "Ġ44": 8379,
      "Ġstreet": 8380,
      "Ġhyper": 8381,
      "Ġnn": 8382,
      "Ġguarant": 8383,
      "\">:</": 8384,
      "Ġthanks": 8385,
      "Ã¤": 8386,
      "Ġartist": 8387,
      "Ġparticles": 8388,
      "chart": 8389,
      "Ġstrength": 8390,
      "MI": 8391,
      "Ġnoticed": 8392,
      "Ġoperating": 8393,
      "Ġnecessarily": 8394,
      "hide": 8395,
      "olf": 8396,
      "sets": 8397,
      "Ð²": 8398,
      "Ġcomfort": 8399,
      "ws": 8400,
      "ĠChe": 8401,
      "Ġchair": 8402,
      "git": 8403,
      ">-": 8404,
      "Ġcauses": 8405,
      "Ġ'.": 8406,
      "Ġarbit": 8407,
      "ĠMont": 8408,
      "Ġ(_": 8409,
      "ĠElect": 8410,
      "Ġrob": 8411,
      "Ġexhib": 8412,
      "nergy": 8413,
      "Ã£": 8414,
      "ĠHill": 8415,
      "Ġforget": 8416,
      "Ġapi": 8417,
      "android": 8418,
      "Ġtwice": 8419,
      "Ġinvalid": 8420,
      "Ġlawy": 8421,
      "material": 8422,
      "Ġinner": 8423,
      "Ġgeometry": 8424,
      "Ġmort": 8425,
      "Ġbenefits": 8426,
      "DR": 8427,
      "Ġdecades": 8428,
      "Ġaccom": 8429,
      "Ġpieces": 8430,
      "Ġputting": 8431,
      "Ġbeat": 8432,
      "Ġbenefit": 8433,
      "Iterator": 8434,
      "Panel": 8435,
      "ancing": 8436,
      "Ġtheorem": 8437,
      "olver": 8438,
      "upd": 8439,
      "Ġhers": 8440,
      "properties": 8441,
      "exit": 8442,
      "achment": 8443,
      "Ġdigital": 8444,
      "Dim": 8445,
      "predict": 8446,
      "Ã§": 8447,
      "navigation": 8448,
      "interpret": 8449,
      "ĠOnce": 8450,
      "ĊĠĠĠĠĠĠĠĠĠĠĠĠĠĠĠĠĠĠĠĠĠĠ": 8451,
      "çĽ": 8452,
      "Ġagreement": 8453,
      "Ġplus": 8454,
      "Ġprem": 8455,
      "Serial": 8456,
      "Ġpermission": 8457,
      "Ġfraction": 8458,
      "ĠWilliam": 8459,
      "Ġsup": 8460,
      "Ġends": 8461,
      "Ġcareful": 8462,
      "Editor": 8463,
      "abit": 8464,
      "Ġprotocol": 8465,
      "Ġweapons": 8466,
      "groups": 8467,
      "Ġscientists": 8468,
      "Ġperspective": 8469,
      "Ġillustr": 8470,
      "Ġwalking": 8471,
      "Ġpresence": 8472,
      "attributes": 8473,
      "shift": 8474,
      "Ġabort": 8475,
      "Ġprime": 8476,
      "]))": 8477,
      "Ok": 8478,
      "Ġhole": 8479,
      "ĠId": 8480,
      "Ġinde": 8481,
      "connection": 8482,
      "180": 8483,
      ">)</": 8484,
      "ĠScott": 8485,
      "Ġtoys": 8486,
      "ĠOS": 8487,
      "Policy": 8488,
      "Ġopportunity": 8489,
      "Dest": 8490,
      "ĠSl": 8491,
      "Ġtrees": 8492,
      "ĠRoy": 8493,
      "Ġjoined": 8494,
      "ĠPal": 8495,
      "ygon": 8496,
      "console": 8497,
      "Ġ[];": 8498,
      "Ġsubst": 8499,
      "resize": 8500,
      "DP": 8501,
      "Ġcancer": 8502,
      "leaf": 8503,
      "'):": 8504,
      "Ġcombination": 8505,
      "nections": 8506,
      "Ġworst": 8507,
      "ĠCouncil": 8508,
      "ĠMuslim": 8509,
      "upload": 8510,
      "links": 8511,
      "sf": 8512,
      "Ġmanaged": 8513,
      "Ġvariety": 8514,
      "Ġadvert": 8515,
      "Ġqueue": 8516,
      "Ġspecifically": 8517,
      "uri": 8518,
      "ĠLinux": 8519,
      "bel": 8520,
      "Ġlaugh": 8521,
      "jo": 8522,
      "=\"../../../../../": 8523,
      "0000000000000000": 8524,
      "Ġpicked": 8525,
      "ĠBritain": 8526,
      "Ġ39": 8527,
      "Ġvan": 8528,
      "mag": 8529,
      "oles": 8530,
      "adv": 8531,
      "('.": 8532,
      "xE": 8533,
      "Ġinvestment": 8534,
      "Ġfighting": 8535,
      "Account": 8536,
      "ĠKorea": 8537,
      "Ġtransl": 8538,
      "Ġcontents": 8539,
      "SY": 8540,
      "Ġappoint": 8541,
      ":'": 8542,
      "Ġclim": 8543,
      "Ġslowly": 8544,
      "Ġoutline": 8545,
      "xFF": 8546,
      "Sequence": 8547,
      "alic": 8548,
      "Ġcreation": 8549,
      "Ġrepresented": 8550,
      "figure": 8551,
      "Ġpanel": 8552,
      "fortunately": 8553,
      "Ġydk": 8554,
      "700": 8555,
      "2006": 8556,
      "torch": 8557,
      "Ġrapid": 8558,
      "ĠFore": 8559,
      "Json": 8560,
      "1999": 8561,
      "Ġsaved": 8562,
      "venue": 8563,
      "eria": 8564,
      "ĠFALSE": 8565,
      "Ġcorner": 8566,
      "Ġimplemented": 8567,
      "Other": 8568,
      "Ġinfr": 8569,
      "Scene": 8570,
      "Ġmatches": 8571,
      "Since": 8572,
      "Ġmiles": 8573,
      "Ġcluster": 8574,
      "job": 8575,
      "Len": 8576,
      "ĠTable": 8577,
      "Ġpython": 8578,
      "eder": 8579,
      "Ġintended": 8580,
      "Ġ[[": 8581,
      "ĠRichard": 8582,
      "Ġprefix": 8583,
      "plan": 8584,
      "Ġfamiliar": 8585,
      "Symbol": 8586,
      "headerlink": 8587,
      "xi": 8588,
      "Ġ[],": 8589,
      "ĠAfrica": 8590,
      "ĠMcC": 8591,
      "ÃĹ": 8592,
      "Ġnative": 8593,
      "Ġopening": 8594,
      "EO": 8595,
      "DEBUG": 8596,
      "Ġserial": 8597,
      "ĠSU": 8598,
      "istent": 8599,
      "Your": 8600,
      "Ġ55": 8601,
      "Ġisland": 8602,
      "Sync": 8603,
      "Ġaudio": 8604,
      "Ġposts": 8605,
      "VENT": 8606,
      "Ġwa": 8607,
      "plus": 8608,
      "Ġaccounts": 8609,
      ">\",": 8610,
      "oret": 8611,
      "NU": 8612,
      "Ġdaily": 8613,
      "%)": 8614,
      "ugins": 8615,
      "Ġlimitations": 8616,
      "storage": 8617,
      "Ġbaby": 8618,
      "Idx": 8619,
      "Ġanaly": 8620,
      "Ġmouth": 8621,
      "Ġrecorded": 8622,
      "ustrial": 8623,
      "fixed": 8624,
      "ĠDev": 8625,
      "ĠĊĊ": 8626,
      "CB": 8627,
      "Ġtyped": 8628,
      "protocol": 8629,
      "ĠTheir": 8630,
      "Art": 8631,
      "imitive": 8632,
      "Ġà®ħ": 8633,
      "ĠCap": 8634,
      "ĠAssociation": 8635,
      "Ġplt": 8636,
      "xt": 8637,
      "ĠDefault": 8638,
      "Ġske": 8639,
      "scription": 8640,
      "pul": 8641,
      "separ": 8642,
      "TF": 8643,
      "Ġgirls": 8644,
      "sel": 8645,
      "Ġoffered": 8646,
      "Ġstated": 8647,
      "altColor": 8648,
      "Ġcrow": 8649,
      "Ġlif": 8650,
      "Ġhandler": 8651,
      "ĠArg": 8652,
      "Ġcities": 8653,
      "While": 8654,
      "abilities": 8655,
      "*(": 8656,
      "Ġpri": 8657,
      "ĠPen": 8658,
      "night": 8659,
      "ĠMiss": 8660,
      "ĠTre": 8661,
      "Ġphen": 8662,
      "}/": 8663,
      "ĠEdit": 8664,
      "'</": 8665,
      "covery": 8666,
      "PH": 8667,
      "Ġwer": 8668,
      "sr": 8669,
      ">{": 8670,
      "Ġsentence": 8671,
      "han": 8672,
      "mesh": 8673,
      "ĠCommit": 8674,
      "ville": 8675,
      "bling": 8676,
      "ĠWil": 8677,
      "Ġcub": 8678,
      "Ġchunk": 8679,
      "Ġpermissions": 8680,
      "*-": 8681,
      "Ġwarm": 8682,
      "ĠPage": 8683,
      ".;": 8684,
      "Ġfuel": 8685,
      "Ġtoy": 8686,
      "aine": 8687,
      "Ġdynam": 8688,
      "ulator": 8689,
      "Decl": 8690,
      "Ġchief": 8691,
      "super": 8692,
      "Ġexchange": 8693,
      "cles": 8694,
      "Ġmeasures": 8695,
      "ECT": 8696,
      "Ġessentially": 8697,
      "Spe": 8698,
      "Ġ600": 8699,
      "IST": 8700,
      "ads": 8701,
      "ĠSOFTWARE": 8702,
      "edy": 8703,
      "ĠUnder": 8704,
      "Ac": 8705,
      "xhtml": 8706,
      "Ġsuspect": 8707,
      "Ġ38": 8708,
      "<<<<": 8709,
      "Ġpropos": 8710,
      "memname": 8711,
      "Ġleaves": 8712,
      "\\\"": 8713,
      "amer": 8714,
      "Ġresolution": 8715,
      "duc": 8716,
      "ĠEvent": 8717,
      "ĠNode": 8718,
      "blob": 8719,
      "\">{{": 8720,
      "Ġreduced": 8721,
      "ĠHand": 8722,
      "history": 8723,
      "ĠHistory": 8724,
      "ĠCA": 8725,
      "ĠCath": 8726,
      "Ġpoll": 8727,
      "bul": 8728,
      "Ġdropped": 8729,
      "ĠSecurity": 8730,
      "install": 8731,
      "å®ļ": 8732,
      "Div": 8733,
      "Ġdialog": 8734,
      "ĠMexico": 8735,
      "SUC": 8736,
      "gence": 8737,
      "cfg": 8738,
      "Ang": 8739,
      "Ġaim": 8740,
      "Ġbecoming": 8741,
      "Ġholds": 8742,
      "Area": 8743,
      "Ġnetworks": 8744,
      "ĠHealth": 8745,
      "Ġstupid": 8746,
      "ĠÂ»": 8747,
      "Ġnoted": 8748,
      "Ġderived": 8749,
      "mosp": 8750,
      "ki": 8751,
      "Ġdrugs": 8752,
      "ĠOlymp": 8753,
      "Ġarms": 8754,
      "Ġstrings": 8755,
      "Ġscr": 8756,
      "ĠKIND": 8757,
      "Ġprompt": 8758,
      "Ġhide": 8759,
      "Ġcaught": 8760,
      "two": 8761,
      "optim": 8762,
      "FLO": 8763,
      "umin": 8764,
      "Ġobviously": 8765,
      "Ġpars": 8766,
      "Member": 8767,
      "Ġenable": 8768,
      "inher": 8769,
      "ĠSpe": 8770,
      "functions": 8771,
      "Ġbroadcast": 8772,
      "Ġhun": 8773,
      "Ġ).": 8774,
      "aser": 8775,
      "Ġcomparison": 8776,
      "vertex": 8777,
      "Ġmine": 8778,
      "ĠâĪĴ": 8779,
      "pa": 8780,
      "memitem": 8781,
      "CM": 8782,
      "outube": 8783,
      "seud": 8784,
      "Ġserve": 8785,
      "Ġ1980": 8786,
      "ĠAma": 8787,
      "ivation": 8788,
      "istant": 8789,
      "ĠSmith": 8790,
      "Ġteams": 8791,
      "Internal": 8792,
      "Ġreq": 8793,
      "Ġcommands": 8794,
      "ĠJim": 8795,
      "Ġthr": 8796,
      "Flag": 8797,
      "region": 8798,
      "icing": 8799,
      "ãģĹ": 8800,
      "Ġdangerous": 8801,
      "itness": 8802,
      "Sep": 8803,
      "Ġdeaths": 8804,
      "mas": 8805,
      "ĠDel": 8806,
      "Ġreader": 8807,
      "Ġextended": 8808,
      "Ġ($": 8809,
      "ä¸į": 8810,
      ";\\": 8811,
      "rank": 8812,
      "tex": 8813,
      "archy": 8814,
      "ĠAfrican": 8815,
      "Rob": 8816,
      "Ġgoto": 8817,
      "Failed": 8818,
      "Ġfly": 8819,
      "bor": 8820,
      "Ġenumer": 8821,
      "schema": 8822,
      "Ġchallenge": 8823,
      "optional": 8824,
      "pattern": 8825,
      "Ġacadem": 8826,
      "AH": 8827,
      "Ġaward": 8828,
      "Sample": 8829,
      "Ġlisted": 8830,
      "SK": 8831,
      "Ġbelieved": 8832,
      "Ġartists": 8833,
      "123": 8834,
      "SQL": 8835,
      "toString": 8836,
      "Ġconsequ": 8837,
      "Gu": 8838,
      "ensus": 8839,
      "Ġreligion": 8840,
      "Ġsufficient": 8841,
      "ãģ§": 8842,
      "Connect": 8843,
      "(`": 8844,
      "å¾": 8845,
      "Changed": 8846,
      "users": 8847,
      "Ġapprec": 8848,
      "Ġcmd": 8849,
      "ĠBoth": 8850,
      "Ġded": 8851,
      "eal": 8852,
      "Ġloud": 8853,
      "Ġinstant": 8854,
      "constant": 8855,
      "Ġdemocr": 8856,
      "Alloc": 8857,
      "Ġmoral": 8858,
      "dimensional": 8859,
      "effect": 8860,
      "Ġ101": 8861,
      "ogram": 8862,
      "Configuration": 8863,
      "ĠMary": 8864,
      "Ġcle": 8865,
      "Cons": 8866,
      "jac": 8867,
      "Ġpolicies": 8868,
      "Collection": 8869,
      "lemma": 8870,
      "fp": 8871,
      "Ġtriangle": 8872,
      "eller": 8873,
      "rad": 8874,
      "Ġsqu": 8875,
      "rgba": 8876,
      "Ġ----------------------------------------------------------------": 8877,
      "Ġcombined": 8878,
      "Ġpulled": 8879,
      "scribe": 8880,
      "Ġpatients": 8881,
      "Ġokay": 8882,
      "ĠCD": 8883,
      "Ġshock": 8884,
      "Ġtight": 8885,
      "ĠUt": 8886,
      "////////////////////////////////////////////////////////////////": 8887,
      "Ġinvent": 8888,
      "Selector": 8889,
      "Ġestimated": 8890,
      "Ġmodified": 8891,
      "Ġanimal": 8892,
      "Ġconversation": 8893,
      "ĠCanadian": 8894,
      "ribe": 8895,
      ">&#": 8896,
      "war": 8897,
      "pred": 8898,
      "aped": 8899,
      "Ġsuggested": 8900,
      "ĠRiver": 8901,
      "cdn": 8902,
      "Ġsubsequ": 8903,
      "Ġgather": 8904,
      "ĠSand": 8905,
      "razy": 8906,
      "Ġfunc": 8907,
      "Ġfolder": 8908,
      "fail": 8909,
      "Ġ69": 8910,
      "Ġlists": 8911,
      "Ġtrial": 8912,
      "ä»¥": 8913,
      "ĠView": 8914,
      "Ġwatched": 8915,
      "Ġtrouble": 8916,
      "Ġspecify": 8917,
      "Classes": 8918,
      "ishes": 8919,
      "Ġincred": 8920,
      "native": 8921,
      "ĠBank": 8922,
      "Ġking": 8923,
      "ĠLeg": 8924,
      "radio": 8925,
      "ropy": 8926,
      "These": 8927,
      "fold": 8928,
      "ez": 8929,
      "Ġ128": 8930,
      "Ġremote": 8931,
      "defined": 8932,
      "ĠGame": 8933,
      "kernel": 8934,
      "iated": 8935,
      "certain": 8936,
      "phys": 8937,
      "nih": 8938,
      "ãģĦ": 8939,
      "ja": 8940,
      "Ġfundamental": 8941,
      "Ġmeta": 8942,
      "oma": 8943,
      "audio": 8944,
      "Double": 8945,
      "cbi": 8946,
      "Ġcrisis": 8947,
      "Microsoft": 8948,
      "ĠBuild": 8949,
      "$$.": 8950,
      "Ġcopies": 8951,
      "requ": 8952,
      "Ġparties": 8953,
      "Ġembedd": 8954,
      "Ġsongs": 8955,
      "ĠExample": 8956,
      "Ġ'#": 8957,
      "Real": 8958,
      "ometimes": 8959,
      "Ġcorrectly": 8960,
      "ems": 8961,
      "Ġdiam": 8962,
      "PATH": 8963,
      "limit": 8964,
      "folder": 8965,
      "exists": 8966,
      "Ġregions": 8967,
      "virt": 8968,
      "Ġhack": 8969,
      "isters": 8970,
      "distance": 8971,
      "retch": 8972,
      "Ġbought": 8973,
      "ĠUSA": 8974,
      "Material": 8975,
      "è¦": 8976,
      ">();": 8977,
      "views": 8978,
      "pb": 8979,
      "Ġdepending": 8980,
      "liament": 8981,
      "Nodes": 8982,
      "Ġlargely": 8983,
      "unched": 8984,
      "ĠAf": 8985,
      "pping": 8986,
      "Ġactivities": 8987,
      "Ġidentify": 8988,
      "Ġusage": 8989,
      "Plugin": 8990,
      "Ġmommy": 8991,
      "Ġfamous": 8992,
      "Ġbuck": 8993,
      "precated": 8994,
      "ĠPo": 8995,
      "ruby": 8996,
      "åĮ": 8997,
      "Pat": 8998,
      "Ġhospital": 8999,
      ")-": 9000,
      "categories": 9001,
      "ĊĊĉĉĉĉ": 9002,
      "Ġintr": 9003,
      "channels": 9004,
      "Ġ41": 9005,
      "Ġmodify": 9006,
      "Ġproperly": 9007,
      "jquery": 9008,
      "Ġmetric": 9009,
      "ById": 9010,
      "isted": 9011,
      "Ġemployees": 9012,
      "going": 9013,
      "ĨĴ": 9014,
      "topic": 9015,
      "ĠRight": 9016,
      "water": 9017,
      "ĠWal": 9018,
      "gamma": 9019,
      "ĠMass": 9020,
      "Ġmathematical": 9021,
      "Ġtruly": 9022,
      "Ġwarning": 9023,
      "ĊĊĠĠĠĠĠĠĠĠĠ": 9024,
      "ĠReal": 9025,
      "ographic": 9026,
      "Ġproport": 9027,
      "Ġaccident": 9028,
      "Ġcalculated": 9029,
      "Ġstatements": 9030,
      "Ġvillage": 9031,
      "Ġfairly": 9032,
      "socket": 9033,
      "Ġfeels": 9034,
      "Â·Â·": 9035,
      "vh": 9036,
      "Ġ63": 9037,
      "tage": 9038,
      "ĠDA": 9039,
      "cls": 9040,
      "æ³": 9041,
      "ideos": 9042,
      "initions": 9043,
      "Ġtrend": 9044,
      "emplates": 9045,
      "ampling": 9046,
      "alax": 9047,
      "sun": 9048,
      "Temp": 9049,
      "Ġbrand": 9050,
      "Ġindeed": 9051,
      "Ġ/></": 9052,
      "Ġintegral": 9053,
      "Ġfan": 9054,
      "hex": 9055,
      "Clear": 9056,
      "()),": 9057,
      "Ġproviding": 9058,
      "WR": 9059,
      "Ġcontrast": 9060,
      "Ġinstalled": 9061,
      "Ġkeeping": 9062,
      "Ġauthors": 9063,
      "rices": 9064,
      "Ġmeasured": 9065,
      "counter": 9066,
      "ĠSup": 9067,
      "Reuters": 9068,
      "ĠMu": 9069,
      "delay": 9070,
      "required": 9071,
      "straint": 9072,
      "oking": 9073,
      "Ġ62": 9074,
      "tooltip": 9075,
      "ĠCSS": 9076,
      "ais": 9077,
      "Util": 9078,
      "Ġtotally": 9079,
      "samples": 9080,
      "æŀ": 9081,
      "ĠCup": 9082,
      "middle": 9083,
      "ĠFlor": 9084,
      "ĠAdult": 9085,
      "NavBar": 9086,
      "Ġrail": 9087,
      "Ġacid": 9088,
      "THOD": 9089,
      "Ġincreases": 9090,
      "Ġscheme": 9091,
      "ĠIE": 9092,
      "&&": 9093,
      "FD": 9094,
      "ĠLuc": 9095,
      "ĠLi": 9096,
      "errors": 9097,
      "Ġminute": 9098,
      "Screen": 9099,
      "Rot": 9100,
      "-&": 9101,
      "wr": 9102,
      "Ġstatistics": 9103,
      "Ġexpansion": 9104,
      "Ġillegal": 9105,
      "Ġtruck": 9106,
      "Ġcompliance": 9107,
      "(/": 9108,
      "forms": 9109,
      "ĠDevel": 9110,
      "ipher": 9111,
      "MPLE": 9112,
      "Ġhundreds": 9113,
      "Ġdeploy": 9114,
      "å½": 9115,
      "Ġdatetime": 9116,
      "arks": 9117,
      "Ġhappening": 9118,
      "chen": 9119,
      "Ġtaxes": 9120,
      "Ġnom": 9121,
      "Ġmacro": 9122,
      "Ġcards": 9123,
      "release": 9124,
      "contents": 9125,
      "usiness": 9126,
      "controller": 9127,
      "iller": 9128,
      "Ġedges": 9129,
      "ami": 9130,
      "Ġhistorical": 9131,
      "\":\"": 9132,
      "icago": 9133,
      "Ġsubstant": 9134,
      "Ġcompetition": 9135,
      "typedef": 9136,
      "amin": 9137,
      "ĠBre": 9138,
      "ICE": 9139,
      "Zbl": 9140,
      "Ġbunch": 9141,
      "Ġcustomers": 9142,
      "istical": 9143,
      "Ġemot": 9144,
      "Ġdrag": 9145,
      "Ġfunny": 9146,
      "Ġchosen": 9147,
      "when": 9148,
      "Ġargue": 9149,
      "ĠWho": 9150,
      "nce": 9151,
      "SM": 9152,
      "ju": 9153,
      "pared": 9154,
      "WARN": 9155,
      "Ġpoly": 9156,
      "Mouse": 9157,
      "NOT": 9158,
      "Ġallowing": 9159,
      "Ġtraffic": 9160,
      "gency": 9161,
      "lie": 9162,
      "osc": 9163,
      "some": 9164,
      "ĠTRUE": 9165,
      "ĠGl": 9166,
      "irmed": 9167,
      "Ġmonitor": 9168,
      "Ġconference": 9169,
      ">'": 9170,
      "Ġ___": 9171,
      "PD": 9172,
      "Ġtechniques": 9173,
      "Ġamazing": 9174,
      "Ġsomewhere": 9175,
      "PTION": 9176,
      "Ġprintf": 9177,
      "^{\\": 9178,
      "ĠDistrict": 9179,
      "ãĥ³": 9180,
      "cli": 9181,
      "illy": 9182,
      "Ġreverse": 9183,
      "Ġphoto": 9184,
      "legate": 9185,
      "224": 9186,
      "nu": 9187,
      "ĠSunday": 9188,
      "Ð´": 9189,
      "Audio": 9190,
      "('./": 9191,
      "Ġaccepted": 9192,
      "ĠAnother": 9193,
      "ĠEv": 9194,
      "ĠIndex": 9195,
      "ĠSociety": 9196,
      "Ġtrick": 9197,
      "Ġbuf": 9198,
      "Meta": 9199,
      "Ġreset": 9200,
      "ĠTherefore": 9201,
      "variant": 9202,
      "ĠInput": 9203,
      "ÑĮ": 9204,
      "trace": 9205,
      "Ġlinked": 9206,
      "Move": 9207,
      "\"><!--": 9208,
      "Ġinstitut": 9209,
      "ĠThomas": 9210,
      "cluded": 9211,
      "anta": 9212,
      "Ġgoverning": 9213,
      "Ġherself": 9214,
      "Ġcarried": 9215,
      "rase": 9216,
      "Descriptor": 9217,
      "Ġpaint": 9218,
      "preprocessor": 9219,
      "Boolean": 9220,
      "articles": 9221,
      "cohol": 9222,
      "'].": 9223,
      "ĠCommittee": 9224,
      "Ġdistinct": 9225,
      "safe": 9226,
      "ĠThanks": 9227,
      "Ġdoctor": 9228,
      "kt": 9229,
      "CALL": 9230,
      "Ġleads": 9231,
      "Ġinset": 9232,
      "Ġmarriage": 9233,
      "ĠSpr": 9234,
      "Profile": 9235,
      "REQ": 9236,
      "************************************************************************": 9237,
      "Ġannual": 9238,
      "clusive": 9239,
      "Ġsuc": 9240,
      "aml": 9241,
      "nos": 9242,
      "Ġ=========": 9243,
      "Ġregarding": 9244,
      "Rule": 9245,
      "fess": 9246,
      "Ġdivision": 9247,
      "ĠHTT": 9248,
      "Ġordered": 9249,
      "Ġoffers": 9250,
      "ĠVALIGN": 9251,
      "cpu": 9252,
      "250": 9253,
      "Di": 9254,
      "GIN": 9255,
      "Ġsitting": 9256,
      "%.": 9257,
      "username": 9258,
      "ĠTor": 9259,
      "Ġ180": 9260,
      "complete": 9261,
      "Ġletters": 9262,
      "Î¹": 9263,
      "XML": 9264,
      "ĠSal": 9265,
      "Ġmission": 9266,
      "Application": 9267,
      "Ġ73": 9268,
      "Ġangry": 9269,
      "ĠConst": 9270,
      "2005": 9271,
      "Ġwrap": 9272,
      "1111": 9273,
      "actor": 9274,
      "Operation": 9275,
      "nlm": 9276,
      "Ġlambda": 9277,
      "hetic": 9278,
      "________________________________": 9279,
      "ĠWill": 9280,
      "Ġunion": 9281,
      "Ġsmile": 9282,
      "ĠPet": 9283,
      "nf": 9284,
      "Ġhol": 9285,
      "oz": 9286,
      "INTER": 9287,
      "ncbi": 9288,
      "Ġbias": 9289,
      "ìĿ": 9290,
      "Ġapart": 9291,
      "Ġsan": 9292,
      "Ġbatter": 9293,
      "Ġlatter": 9294,
      "Ġlie": 9295,
      "otted": 9296,
      "ega": 9297,
      "ĠNet": 9298,
      "Ġcharges": 9299,
      "ĠCentral": 9300,
      "EQUAL": 9301,
      "viation": 9302,
      "Ġsupports": 9303,
      "ĠSil": 9304,
      "ĠAustralian": 9305,
      "collection": 9306,
      "dash": 9307,
      "Ġharm": 9308,
      "Ġgender": 9309,
      "}}</": 9310,
      "ĊĠĠĠĠĠĠĠĠĠĠĠĠĠĠĠĠĠĠĠĠĠĠĠĠĠĠĠĠĠĠ": 9311,
      "lers": 9312,
      "thumb": 9313,
      "Prop": 9314,
      "ĠSar": 9315,
      "Ġarticles": 9316,
      "Ġmillions": 9317,
      "ostream": 9318,
      "RIGHT": 9319,
      "Total": 9320,
      "Ġdoi": 9321,
      "Ġrat": 9322,
      "ORY": 9323,
      "John": 9324,
      "Ġexpressed": 9325,
      "ĠUnless": 9326,
      "Author": 9327,
      "Card": 9328,
      "Ġvectors": 9329,
      "Ġwire": 9330,
      "ilation": 9331,
      "kl": 9332,
      "Anal": 9333,
      "Ġnewsp": 9334,
      "Ġatom": 9335,
      "Video": 9336,
      "WIN": 9337,
      "rowColor": 9338,
      "Ġspeaking": 9339,
      "Ġlimits": 9340,
      "Ġstrange": 9341,
      "Ġbroke": 9342,
      "Ġprev": 9343,
      "ĠLook": 9344,
      "Logger": 9345,
      "(<": 9346,
      "Proxy": 9347,
      "Yeah": 9348,
      "strip": 9349,
      "ĠGrand": 9350,
      "Ġbag": 9351,
      "Ġarmy": 9352,
      "scape": 9353,
      "Ġhus": 9354,
      "oting": 9355,
      "contact": 9356,
      "ĠWall": 9357,
      "000000000": 9358,
      "=\"\"": 9359,
      "Ġofficer": 9360,
      "Scope": 9361,
      "ĠControl": 9362,
      "Ġsyntax": 9363,
      "stood": 9364,
      "æĸĩ": 9365,
      "Non": 9366,
      "ora": 9367,
      "Ġmaintain": 9368,
      "Timeout": 9369,
      "Ġdecisions": 9370,
      "LY": 9371,
      "nv": 9372,
      "Remove": 9373,
      "orney": 9374,
      "ĠSecret": 9375,
      "è¡Į": 9376,
      "Please": 9377,
      "Ġbanks": 9378,
      "Ġprotest": 9379,
      "scan": 9380,
      "Ġpeak": 9381,
      "headers": 9382,
      "Ġcoverage": 9383,
      "uan": 9384,
      "Ġquarter": 9385,
      "aN": 9386,
      "anda": 9387,
      "Comm": 9388,
      "ĠHall": 9389,
      "Feature": 9390,
      "Ġstanding": 9391,
      "Enabled": 9392,
      "[[": 9393,
      "Ġstandards": 9394,
      "writer": 9395,
      "Ġadvis": 9396,
      "Ġresearchers": 9397,
      "Ġdelta": 9398,
      "Ġ46": 9399,
      "STRONG": 9400,
      "Mar": 9401,
      "itar": 9402,
      "Ġsolar": 9403,
      "Ġdimensions": 9404,
      "estic": 9405,
      "]+": 9406,
      "åı¯": 9407,
      "ourier": 9408,
      "Ġkick": 9409,
      "Ġtechnical": 9410,
      "Ġbomb": 9411,
      "Ġjudge": 9412,
      "Stop": 9413,
      "TeX": 9414,
      "Ġtiny": 9415,
      "Ġcontinues": 9416,
      "ĠCommand": 9417,
      "ndef": 9418,
      "Face": 9419,
      "Ġformal": 9420,
      "seed": 9421,
      "Ġorient": 9422,
      "Ġpartner": 9423,
      "Ġweird": 9424,
      "Found": 9425,
      "Ġcout": 9426,
      "Ġsignificantly": 9427,
      "ĠWik": 9428,
      "ĠBest": 9429,
      "Before": 9430,
      "examples": 9431,
      "ĠWhere": 9432,
      "invalid": 9433,
      "Ġmesh": 9434,
      "Send": 9435,
      "gments": 9436,
      "VICE": 9437,
      "]=": 9438,
      "ç½": 9439,
      "youtube": 9440,
      "Ġassess": 9441,
      "However": 9442,
      "Ġretr": 9443,
      "ura": 9444,
      "***": 9445,
      "Ġsav": 9446,
      "viet": 9447,
      "inet": 9448,
      "Make": 9449,
      "Ġ56": 9450,
      "Ġbott": 9451,
      "Ġvoc": 9452,
      "pict": 9453,
      "Ġcb": 9454,
      "good": 9455,
      "rovers": 9456,
      "selection": 9457,
      "Ġenabled": 9458,
      "Ġtail": 9459,
      "slice": 9460,
      "ĠHen": 9461,
      "Ġdisag": 9462,
      "UID": 9463,
      "Ġsuggests": 9464,
      "Ġentries": 9465,
      "MODE": 9466,
      "javax": 9467,
      "Ident": 9468,
      "()\">": 9469,
      "flat": 9470,
      "segment": 9471,
      "Ġexpandable": 9472,
      "kg": 9473,
      "Ġ95": 9474,
      "Ġ47": 9475,
      "è§": 9476,
      "ucket": 9477,
      "Cond": 9478,
      "alty": 9479,
      "Ġcomplicated": 9480,
      "Ġsomewhat": 9481,
      "ghan": 9482,
      "Ġdst": 9483,
      "Ġmathematics": 9484,
      "Ġpurs": 9485,
      "OLD": 9486,
      "olate": 9487,
      "ä¿": 9488,
      "Ġaccurate": 9489,
      "ĊĠĠĠĠĠĠĠĠĠĠĠĠĊĠĠĠĠĠĠĠĠĠĠĠ": 9490,
      "ircraft": 9491,
      "Ġkinds": 9492,
      "Ġcrack": 9493,
      "Ġabstract": 9494,
      "Â¶</": 9495,
      "rich": 9496,
      "nown": 9497,
      "pository": 9498,
      "\">Â¶</": 9499,
      "Ġalgorithms": 9500,
      "raries": 9501,
      "----------": 9502,
      "Ġtasks": 9503,
      "Ġfresh": 9504,
      "Ġë": 9505,
      "Ġdifferential": 9506,
      "Ġconsistent": 9507,
      "ubble": 9508,
      "0000000": 9509,
      "Ġadvanced": 9510,
      "::~": 9511,
      "Ġclip": 9512,
      "standing": 9513,
[...]
